{
  "version": "1.0",
  "truncation": null,
  "padding": null,
  "added_tokens": [
    {
      "id": 0,
      "content": "[PAD]",
      "single_word": false,
      "lstrip": false,
      "rstrip": false,
      "normalized": false,
      "special": true
    },
    {
      "id": 1,
      "content": "[UNK]",
      "single_word": false,
      "lstrip": false,
      "rstrip": false,
      "normalized": false,
      "special": true
    },
    {
      "id": 2,
      "content": "[BOS]",
      "single_word": false,
      "lstrip": false,
      "rstrip": false,
      "normalized": false,
      "special": true
    },
    {
      "id": 3,
      "content": "[EOS]",
      "single_word": false,
      "lstrip": false,
      "rstrip": false,
      "normalized": false,
      "special": true
    }
  ],
  "normalizer": null,
  "pre_tokenizer": {
    "type": "Whitespace"
  },
  "post_processor": null,
  "decoder": null,
  "model": {
    "type": "BPE",
    "dropout": null,
    "unk_token": "[UNK]",
    "continuing_subword_prefix": null,
    "end_of_word_suffix": null,
    "fuse_unk": false,
    "byte_fallback": false,
    "ignore_merges": false,
    "vocab": {
      "[PAD]": 0,
      "[UNK]": 1,
      "[BOS]": 2,
      "[EOS]": 3,
      "!": 4,
      "\"": 5,
      "#": 6,
      "$": 7,
      "%": 8,
      "&": 9,
      "'": 10,
      "(": 11,
      ")": 12,
      "*": 13,
      "+": 14,
      ",": 15,
      "-": 16,
      ".": 17,
      "/": 18,
      "0": 19,
      "1": 20,
      "2": 21,
      "3": 22,
      "4": 23,
      "5": 24,
      "6": 25,
      "7": 26,
      "8": 27,
      "9": 28,
      ":": 29,
      ";": 30,
      "<": 31,
      "=": 32,
      ">": 33,
      "?": 34,
      "@": 35,
      "A": 36,
      "B": 37,
      "C": 38,
      "D": 39,
      "E": 40,
      "F": 41,
      "G": 42,
      "H": 43,
      "I": 44,
      "J": 45,
      "K": 46,
      "L": 47,
      "M": 48,
      "N": 49,
      "O": 50,
      "P": 51,
      "Q": 52,
      "R": 53,
      "S": 54,
      "T": 55,
      "U": 56,
      "V": 57,
      "W": 58,
      "X": 59,
      "Y": 60,
      "Z": 61,
      "[": 62,
      "\\": 63,
      "]": 64,
      "^": 65,
      "_": 66,
      "`": 67,
      "a": 68,
      "b": 69,
      "c": 70,
      "d": 71,
      "e": 72,
      "f": 73,
      "g": 74,
      "h": 75,
      "i": 76,
      "j": 77,
      "k": 78,
      "l": 79,
      "m": 80,
      "n": 81,
      "o": 82,
      "p": 83,
      "q": 84,
      "r": 85,
      "s": 86,
      "t": 87,
      "u": 88,
      "v": 89,
      "w": 90,
      "x": 91,
      "y": 92,
      "z": 93,
      "{": 94,
      "|": 95,
      "}": 96,
      "~": 97,
      "": 98,
      "": 99,
      "": 100,
      "": 101,
      "": 102,
      "£": 103,
      "©": 104,
      "®": 105,
      "°": 106,
      "±": 107,
      "²": 108,
      "·": 109,
      "Á": 110,
      "É": 111,
      "Í": 112,
      "Ñ": 113,
      "Ó": 114,
      "×": 115,
      "Ú": 116,
      "ß": 117,
      "á": 118,
      "ã": 119,
      "è": 120,
      "é": 121,
      "í": 122,
      "î": 123,
      "ñ": 124,
      "ó": 125,
      "ö": 126,
      "÷": 127,
      "ú": 128,
      "û": 129,
      "ü": 130,
      "ı": 131,
      "ş": 132,
      "΅": 133,
      "Ύ": 134,
      "Ξ": 135,
      "Π": 136,
      "Ρ": 137,
      "λ": 138,
      "К": 139,
      "а": 140,
      "в": 141,
      "д": 142,
      "е": 143,
      "и": 144,
      "к": 145,
      "л": 146,
      "н": 147,
      "о": 148,
      "р": 149,
      "с": 150,
      "т": 151,
      "ш": 152,
      "​": 153,
      "–": 154,
      "—": 155,
      "‘": 156,
      "’": 157,
      "“": 158,
      "”": 159,
      "•": 160,
      "…": 161,
      "ℎ": 162,
      "™": 163,
      "→": 164,
      "−": 165,
      "√": 166,
      "∩": 167,
      "≠": 168,
      "≤": 169,
      "≥": 170,
      "■": 171,
      "⚡": 172,
      "✅": 173,
      "✔": 174,
      "❌": 175,
      "❤": 176,
      "、": 177,
      "。": 178,
      "《": 179,
      "》": 180,
      "ㅜ": 181,
      "ㅠ": 182,
      "一": 183,
      "丁": 184,
      "七": 185,
      "万": 186,
      "三": 187,
      "上": 188,
      "下": 189,
      "不": 190,
      "与": 191,
      "丑": 192,
      "专": 193,
      "且": 194,
      "世": 195,
      "丘": 196,
      "业": 197,
      "丛": 198,
      "东": 199,
      "丝": 200,
      "丢": 201,
      "两": 202,
      "严": 203,
      "丧": 204,
      "个": 205,
      "中": 206,
      "丰": 207,
      "串": 208,
      "临": 209,
      "丹": 210,
      "为": 211,
      "主": 212,
      "丽": 213,
      "举": 214,
      "久": 215,
      "么": 216,
      "义": 217,
      "之": 218,
      "乌": 219,
      "乎": 220,
      "乏": 221,
      "乐": 222,
      "乔": 223,
      "乘": 224,
      "乙": 225,
      "九": 226,
      "也": 227,
      "习": 228,
      "乡": 229,
      "书": 230,
      "买": 231,
      "乱": 232,
      "乳": 233,
      "了": 234,
      "予": 235,
      "争": 236,
      "事": 237,
      "二": 238,
      "于": 239,
      "亏": 240,
      "云": 241,
      "互": 242,
      "五": 243,
      "井": 244,
      "亚": 245,
      "些": 246,
      "亡": 247,
      "交": 248,
      "亥": 249,
      "亦": 250,
      "产": 251,
      "亨": 252,
      "享": 253,
      "亭": 254,
      "亮": 255,
      "亲": 256,
      "人": 257,
      "亿": 258,
      "什": 259,
      "仁": 260,
      "仅": 261,
      "仇": 262,
      "今": 263,
      "介": 264,
      "仍": 265,
      "从": 266,
      "仑": 267,
      "仓": 268,
      "仔": 269,
      "他": 270,
      "仗": 271,
      "付": 272,
      "仙": 273,
      "代": 274,
      "令": 275,
      "以": 276,
      "仪": 277,
      "们": 278,
      "仰": 279,
      "仲": 280,
      "件": 281,
      "价": 282,
      "任": 283,
      "份": 284,
      "仿": 285,
      "企": 286,
      "伊": 287,
      "伍": 288,
      "伏": 289,
      "伐": 290,
      "休": 291,
      "众": 292,
      "优": 293,
      "伙": 294,
      "会": 295,
      "伞": 296,
      "伟": 297,
      "传": 298,
      "伤": 299,
      "伦": 300,
      "伪": 301,
      "伯": 302,
      "估": 303,
      "伴": 304,
      "伸": 305,
      "伺": 306,
      "似": 307,
      "伽": 308,
      "但": 309,
      "位": 310,
      "低": 311,
      "住": 312,
      "佐": 313,
      "体": 314,
      "何": 315,
      "余": 316,
      "佛": 317,
      "作": 318,
      "你": 319,
      "佣": 320,
      "佩": 321,
      "佬": 322,
      "佳": 323,
      "使": 324,
      "例": 325,
      "供": 326,
      "依": 327,
      "侠": 328,
      "侣": 329,
      "侦": 330,
      "侧": 331,
      "侮": 332,
      "侵": 333,
      "便": 334,
      "促": 335,
      "俄": 336,
      "俏": 337,
      "俗": 338,
      "俚": 339,
      "保": 340,
      "信": 341,
      "修": 342,
      "俯": 343,
      "俱": 344,
      "俳": 345,
      "倍": 346,
      "倒": 347,
      "候": 348,
      "倚": 349,
      "借": 350,
      "倡": 351,
      "倦": 352,
      "债": 353,
      "值": 354,
      "倾": 355,
      "假": 356,
      "偏": 357,
      "做": 358,
      "停": 359,
      "健": 360,
      "偶": 361,
      "偷": 362,
      "偿": 363,
      "傅": 364,
      "储": 365,
      "催": 366,
      "傲": 367,
      "傻": 368,
      "像": 369,
      "僵": 370,
      "儿": 371,
      "允": 372,
      "元": 373,
      "兄": 374,
      "充": 375,
      "先": 376,
      "光": 377,
      "克": 378,
      "免": 379,
      "兑": 380,
      "兔": 381,
      "党": 382,
      "兜": 383,
      "入": 384,
      "全": 385,
      "八": 386,
      "公": 387,
      "六": 388,
      "兰": 389,
      "共": 390,
      "关": 391,
      "兴": 392,
      "兵": 393,
      "其": 394,
      "具": 395,
      "典": 396,
      "兹": 397,
      "养": 398,
      "兼": 399,
      "兽": 400,
      "内": 401,
      "册": 402,
      "再": 403,
      "冒": 404,
      "冗": 405,
      "写": 406,
      "军": 407,
      "农": 408,
      "冠": 409,
      "冥": 410,
      "冬": 411,
      "冯": 412,
      "冰": 413,
      "冲": 414,
      "决": 415,
      "况": 416,
      "冶": 417,
      "冷": 418,
      "冻": 419,
      "净": 420,
      "准": 421,
      "凉": 422,
      "凌": 423,
      "减": 424,
      "凑": 425,
      "凝": 426,
      "几": 427,
      "凡": 428,
      "凭": 429,
      "凯": 430,
      "凳": 431,
      "凶": 432,
      "凸": 433,
      "出": 434,
      "击": 435,
      "函": 436,
      "分": 437,
      "切": 438,
      "刊": 439,
      "划": 440,
      "列": 441,
      "刘": 442,
      "则": 443,
      "刚": 444,
      "创": 445,
      "初": 446,
      "删": 447,
      "判": 448,
      "利": 449,
      "别": 450,
      "到": 451,
      "制": 452,
      "刷": 453,
      "券": 454,
      "刹": 455,
      "刺": 456,
      "刻": 457,
      "刽": 458,
      "剂": 459,
      "削": 460,
      "前": 461,
      "剑": 462,
      "剔": 463,
      "剥": 464,
      "剧": 465,
      "剩": 466,
      "剪": 467,
      "副": 468,
      "割": 469,
      "力": 470,
      "办": 471,
      "功": 472,
      "加": 473,
      "务": 474,
      "劣": 475,
      "动": 476,
      "助": 477,
      "努": 478,
      "劫": 479,
      "励": 480,
      "劲": 481,
      "劳": 482,
      "势": 483,
      "勃": 484,
      "勇": 485,
      "勒": 486,
      "募": 487,
      "勤": 488,
      "勾": 489,
      "匀": 490,
      "包": 491,
      "匆": 492,
      "化": 493,
      "北": 494,
      "匙": 495,
      "匣": 496,
      "匹": 497,
      "区": 498,
      "医": 499,
      "匿": 500,
      "十": 501,
      "千": 502,
      "升": 503,
      "午": 504,
      "卉": 505,
      "半": 506,
      "华": 507,
      "协": 508,
      "卑": 509,
      "卓": 510,
      "单": 511,
      "卖": 512,
      "南": 513,
      "博": 514,
      "卜": 515,
      "占": 516,
      "卡": 517,
      "卢": 518,
      "卧": 519,
      "卫": 520,
      "印": 521,
      "危": 522,
      "即": 523,
      "却": 524,
      "卷": 525,
      "卸": 526,
      "厂": 527,
      "厄": 528,
      "厅": 529,
      "历": 530,
      "厉": 531,
      "压": 532,
      "厌": 533,
      "厕": 534,
      "厘": 535,
      "厚": 536,
      "原": 537,
      "厨": 538,
      "去": 539,
      "县": 540,
      "参": 541,
      "又": 542,
      "叉": 543,
      "及": 544,
      "友": 545,
      "双": 546,
      "反": 547,
      "发": 548,
      "叔": 549,
      "取": 550,
      "受": 551,
      "变": 552,
      "叙": 553,
      "叛": 554,
      "叠": 555,
      "口": 556,
      "古": 557,
      "句": 558,
      "另": 559,
      "只": 560,
      "叫": 561,
      "召": 562,
      "可": 563,
      "台": 564,
      "史": 565,
      "右": 566,
      "叶": 567,
      "号": 568,
      "司": 569,
      "叹": 570,
      "吁": 571,
      "吃": 572,
      "各": 573,
      "合": 574,
      "吉": 575,
      "同": 576,
      "名": 577,
      "后": 578,
      "吐": 579,
      "向": 580,
      "吗": 581,
      "吞": 582,
      "吟": 583,
      "否": 584,
      "吧": 585,
      "含": 586,
      "听": 587,
      "启": 588,
      "吱": 589,
      "吴": 590,
      "吵": 591,
      "吸": 592,
      "吻": 593,
      "呆": 594,
      "呈": 595,
      "告": 596,
      "呐": 597,
      "员": 598,
      "呜": 599,
      "呢": 600,
      "周": 601,
      "味": 602,
      "呼": 603,
      "命": 604,
      "咆": 605,
      "和": 606,
      "咒": 607,
      "咖": 608,
      "咙": 609,
      "咧": 610,
      "咨": 611,
      "咪": 612,
      "咬": 613,
      "咸": 614,
      "哀": 615,
      "品": 616,
      "哇": 617,
      "哈": 618,
      "响": 619,
      "哥": 620,
      "哦": 621,
      "哪": 622,
      "哭": 623,
      "哮": 624,
      "哲": 625,
      "唇": 626,
      "唐": 627,
      "唤": 628,
      "售": 629,
      "唯": 630,
      "唱": 631,
      "啄": 632,
      "商": 633,
      "啊": 634,
      "啡": 635,
      "啤": 636,
      "啸": 637,
      "喂": 638,
      "善": 639,
      "喉": 640,
      "喊": 641,
      "喙": 642,
      "喜": 643,
      "喝": 644,
      "喵": 645,
      "喷": 646,
      "喻": 647,
      "嗓": 648,
      "嗨": 649,
      "嗯": 650,
      "嘈": 651,
      "嘉": 652,
      "嘲": 653,
      "嘴": 654,
      "嘻": 655,
      "嘿": 656,
      "噢": 657,
      "器": 658,
      "噪": 659,
      "噬": 660,
      "嚎": 661,
      "囚": 662,
      "四": 663,
      "回": 664,
      "因": 665,
      "团": 666,
      "园": 667,
      "困": 668,
      "围": 669,
      "固": 670,
      "国": 671,
      "图": 672,
      "圆": 673,
      "圈": 674,
      "土": 675,
      "圣": 676,
      "在": 677,
      "地": 678,
      "场": 679,
      "圾": 680,
      "址": 681,
      "均": 682,
      "坊": 683,
      "坍": 684,
      "坏": 685,
      "坐": 686,
      "坑": 687,
      "块": 688,
      "坚": 689,
      "坛": 690,
      "坞": 691,
      "坡": 692,
      "坦": 693,
      "垂": 694,
      "垃": 695,
      "型": 696,
      "垒": 697,
      "垫": 698,
      "垮": 699,
      "埃": 700,
      "埋": 701,
      "城": 702,
      "域": 703,
      "培": 704,
      "基": 705,
      "堂": 706,
      "堆": 707,
      "堕": 708,
      "堡": 709,
      "堪": 710,
      "堵": 711,
      "塌": 712,
      "塑": 713,
      "塔": 714,
      "塘": 715,
      "塞": 716,
      "填": 717,
      "境": 718,
      "墅": 719,
      "墓": 720,
      "墙": 721,
      "增": 722,
      "墟": 723,
      "墨": 724,
      "壁": 725,
      "壕": 726,
      "壤": 727,
      "士": 728,
      "壬": 729,
      "壮": 730,
      "声": 731,
      "壳": 732,
      "壶": 733,
      "处": 734,
      "备": 735,
      "复": 736,
      "夏": 737,
      "外": 738,
      "多": 739,
      "夜": 740,
      "够": 741,
      "大": 742,
      "天": 743,
      "太": 744,
      "夫": 745,
      "央": 746,
      "夯": 747,
      "失": 748,
      "头": 749,
      "夸": 750,
      "夹": 751,
      "夺": 752,
      "奇": 753,
      "奈": 754,
      "奉": 755,
      "奋": 756,
      "奎": 757,
      "奏": 758,
      "契": 759,
      "奔": 760,
      "奖": 761,
      "套": 762,
      "奠": 763,
      "奢": 764,
      "奥": 765,
      "女": 766,
      "奴": 767,
      "奶": 768,
      "奸": 769,
      "她": 770,
      "好": 771,
      "如": 772,
      "妆": 773,
      "妇": 774,
      "妈": 775,
      "妒": 776,
      "妙": 777,
      "妥": 778,
      "妨": 779,
      "妮": 780,
      "妹": 781,
      "妻": 782,
      "姆": 783,
      "始": 784,
      "姐": 785,
      "姑": 786,
      "姓": 787,
      "委": 788,
      "姨": 789,
      "姻": 790,
      "姿": 791,
      "威": 792,
      "娇": 793,
      "娘": 794,
      "娜": 795,
      "娱": 796,
      "婆": 797,
      "婉": 798,
      "婚": 799,
      "婪": 800,
      "媒": 801,
      "媚": 802,
      "嫉": 803,
      "嫌": 804,
      "子": 805,
      "孔": 806,
      "字": 807,
      "存": 808,
      "孙": 809,
      "孟": 810,
      "季": 811,
      "孤": 812,
      "学": 813,
      "孩": 814,
      "孪": 815,
      "宁": 816,
      "它": 817,
      "宅": 818,
      "宇": 819,
      "守": 820,
      "安": 821,
      "完": 822,
      "宏": 823,
      "宕": 824,
      "宗": 825,
      "官": 826,
      "宙": 827,
      "定": 828,
      "宜": 829,
      "宝": 830,
      "实": 831,
      "宠": 832,
      "审": 833,
      "客": 834,
      "宣": 835,
      "室": 836,
      "宪": 837,
      "宫": 838,
      "害": 839,
      "宴": 840,
      "家": 841,
      "容": 842,
      "宽": 843,
      "宾": 844,
      "宿": 845,
      "寂": 846,
      "寄": 847,
      "密": 848,
      "富": 849,
      "寒": 850,
      "寓": 851,
      "寞": 852,
      "察": 853,
      "寸": 854,
      "对": 855,
      "寻": 856,
      "导": 857,
      "寿": 858,
      "封": 859,
      "射": 860,
      "将": 861,
      "尊": 862,
      "小": 863,
      "少": 864,
      "尔": 865,
      "尖": 866,
      "尘": 867,
      "尚": 868,
      "尝": 869,
      "尤": 870,
      "尬": 871,
      "就": 872,
      "尴": 873,
      "尸": 874,
      "尺": 875,
      "尼": 876,
      "尽": 877,
      "尾": 878,
      "局": 879,
      "层": 880,
      "居": 881,
      "屈": 882,
      "届": 883,
      "屋": 884,
      "屏": 885,
      "展": 886,
      "属": 887,
      "履": 888,
      "山": 889,
      "屿": 890,
      "岁": 891,
      "岖": 892,
      "岗": 893,
      "岛": 894,
      "岩": 895,
      "岭": 896,
      "岸": 897,
      "峭": 898,
      "峰": 899,
      "崇": 900,
      "崎": 901,
      "崖": 902,
      "崛": 903,
      "崩": 904,
      "嵌": 905,
      "州": 906,
      "巡": 907,
      "巢": 908,
      "工": 909,
      "左": 910,
      "巧": 911,
      "巨": 912,
      "巩": 913,
      "巫": 914,
      "差": 915,
      "己": 916,
      "已": 917,
      "巴": 918,
      "巾": 919,
      "币": 920,
      "市": 921,
      "布": 922,
      "帆": 923,
      "师": 924,
      "希": 925,
      "帐": 926,
      "帕": 927,
      "帖": 928,
      "帝": 929,
      "带": 930,
      "帧": 931,
      "席": 932,
      "帮": 933,
      "常": 934,
      "帽": 935,
      "幂": 936,
      "幅": 937,
      "幔": 938,
      "幕": 939,
      "干": 940,
      "平": 941,
      "年": 942,
      "并": 943,
      "幸": 944,
      "幻": 945,
      "幼": 946,
      "幽": 947,
      "广": 948,
      "庄": 949,
      "庆": 950,
      "床": 951,
      "序": 952,
      "库": 953,
      "应": 954,
      "底": 955,
      "店": 956,
      "府": 957,
      "庞": 958,
      "废": 959,
      "度": 960,
      "座": 961,
      "庭": 962,
      "康": 963,
      "庸": 964,
      "廉": 965,
      "廊": 966,
      "廓": 967,
      "延": 968,
      "廷": 969,
      "建": 970,
      "开": 971,
      "异": 972,
      "弃": 973,
      "弄": 974,
      "弈": 975,
      "弊": 976,
      "式": 977,
      "弓": 978,
      "引": 979,
      "弗": 980,
      "弟": 981,
      "张": 982,
      "弥": 983,
      "弦": 984,
      "弧": 985,
      "弯": 986,
      "弱": 987,
      "弹": 988,
      "强": 989,
      "归": 990,
      "当": 991,
      "录": 992,
      "形": 993,
      "彩": 994,
      "彰": 995,
      "影": 996,
      "役": 997,
      "彻": 998,
      "彼": 999,
      "往": 1000,
      "征": 1001,
      "径": 1002,
      "待": 1003,
      "很": 1004,
      "律": 1005,
      "徒": 1006,
      "得": 1007,
      "御": 1008,
      "循": 1009,
      "微": 1010,
      "德": 1011,
      "徽": 1012,
      "心": 1013,
      "必": 1014,
      "忆": 1015,
      "忌": 1016,
      "忍": 1017,
      "志": 1018,
      "忘": 1019,
      "忙": 1020,
      "忠": 1021,
      "忧": 1022,
      "快": 1023,
      "念": 1024,
      "忽": 1025,
      "怀": 1026,
      "态": 1027,
      "怎": 1028,
      "怒": 1029,
      "怕": 1030,
      "怖": 1031,
      "思": 1032,
      "急": 1033,
      "性": 1034,
      "怨": 1035,
      "怪": 1036,
      "总": 1037,
      "恋": 1038,
      "恐": 1039,
      "恒": 1040,
      "恢": 1041,
      "恤": 1042,
      "恨": 1043,
      "恩": 1044,
      "恭": 1045,
      "息": 1046,
      "恰": 1047,
      "恳": 1048,
      "恶": 1049,
      "悄": 1050,
      "悉": 1051,
      "悖": 1052,
      "悚": 1053,
      "悠": 1054,
      "患": 1055,
      "悦": 1056,
      "您": 1057,
      "悬": 1058,
      "悲": 1059,
      "情": 1060,
      "惊": 1061,
      "惑": 1062,
      "惕": 1063,
      "惜": 1064,
      "惠": 1065,
      "惧": 1066,
      "惨": 1067,
      "惩": 1068,
      "惫": 1069,
      "惯": 1070,
      "惰": 1071,
      "想": 1072,
      "愈": 1073,
      "愉": 1074,
      "意": 1075,
      "愚": 1076,
      "感": 1077,
      "愤": 1078,
      "愿": 1079,
      "慈": 1080,
      "慌": 1081,
      "慎": 1082,
      "慕": 1083,
      "慢": 1084,
      "慧": 1085,
      "慨": 1086,
      "慰": 1087,
      "慷": 1088,
      "憾": 1089,
      "懂": 1090,
      "懈": 1091,
      "懒": 1092,
      "懦": 1093,
      "戈": 1094,
      "戏": 1095,
      "成": 1096,
      "我": 1097,
      "戒": 1098,
      "或": 1099,
      "战": 1100,
      "戚": 1101,
      "截": 1102,
      "戳": 1103,
      "戴": 1104,
      "户": 1105,
      "房": 1106,
      "所": 1107,
      "扁": 1108,
      "扇": 1109,
      "手": 1110,
      "才": 1111,
      "扎": 1112,
      "扑": 1113,
      "打": 1114,
      "扔": 1115,
      "托": 1116,
      "扣": 1117,
      "执": 1118,
      "扩": 1119,
      "扫": 1120,
      "扬": 1121,
      "扭": 1122,
      "扮": 1123,
      "扰": 1124,
      "批": 1125,
      "扼": 1126,
      "找": 1127,
      "承": 1128,
      "技": 1129,
      "抄": 1130,
      "把": 1131,
      "抑": 1132,
      "抓": 1133,
      "投": 1134,
      "抖": 1135,
      "抗": 1136,
      "折": 1137,
      "抚": 1138,
      "抛": 1139,
      "抢": 1140,
      "护": 1141,
      "报": 1142,
      "披": 1143,
      "抬": 1144,
      "抱": 1145,
      "抵": 1146,
      "抹": 1147,
      "押": 1148,
      "抽": 1149,
      "担": 1150,
      "拆": 1151,
      "拇": 1152,
      "拉": 1153,
      "拌": 1154,
      "拍": 1155,
      "拐": 1156,
      "拒": 1157,
      "拓": 1158,
      "拔": 1159,
      "拖": 1160,
      "拙": 1161,
      "招": 1162,
      "拜": 1163,
      "拟": 1164,
      "拢": 1165,
      "拣": 1166,
      "拥": 1167,
      "拦": 1168,
      "拨": 1169,
      "择": 1170,
      "括": 1171,
      "拯": 1172,
      "拱": 1173,
      "拼": 1174,
      "拾": 1175,
      "拿": 1176,
      "持": 1177,
      "挂": 1178,
      "指": 1179,
      "按": 1180,
      "挑": 1181,
      "挖": 1182,
      "挚": 1183,
      "挡": 1184,
      "挣": 1185,
      "挤": 1186,
      "挥": 1187,
      "挪": 1188,
      "挫": 1189,
      "振": 1190,
      "挺": 1191,
      "挽": 1192,
      "捉": 1193,
      "捐": 1194,
      "捕": 1195,
      "捞": 1196,
      "损": 1197,
      "捡": 1198,
      "换": 1199,
      "捧": 1200,
      "据": 1201,
      "捷": 1202,
      "授": 1203,
      "掉": 1204,
      "掌": 1205,
      "排": 1206,
      "掘": 1207,
      "掠": 1208,
      "探": 1209,
      "接": 1210,
      "控": 1211,
      "推": 1212,
      "掩": 1213,
      "措": 1214,
      "掬": 1215,
      "掷": 1216,
      "揉": 1217,
      "描": 1218,
      "提": 1219,
      "插": 1220,
      "握": 1221,
      "揭": 1222,
      "援": 1223,
      "搅": 1224,
      "搜": 1225,
      "搞": 1226,
      "搬": 1227,
      "搭": 1228,
      "携": 1229,
      "摄": 1230,
      "摆": 1231,
      "摇": 1232,
      "摊": 1233,
      "摘": 1234,
      "摧": 1235,
      "摩": 1236,
      "摸": 1237,
      "撇": 1238,
      "撑": 1239,
      "撒": 1240,
      "撕": 1241,
      "撞": 1242,
      "撤": 1243,
      "播": 1244,
      "撰": 1245,
      "撼": 1246,
      "擀": 1247,
      "擅": 1248,
      "操": 1249,
      "擎": 1250,
      "擦": 1251,
      "攀": 1252,
      "支": 1253,
      "收": 1254,
      "改": 1255,
      "攻": 1256,
      "放": 1257,
      "政": 1258,
      "故": 1259,
      "效": 1260,
      "敌": 1261,
      "敏": 1262,
      "救": 1263,
      "教": 1264,
      "敛": 1265,
      "敞": 1266,
      "敢": 1267,
      "散": 1268,
      "敦": 1269,
      "敬": 1270,
      "数": 1271,
      "整": 1272,
      "文": 1273,
      "斐": 1274,
      "斑": 1275,
      "斗": 1276,
      "料": 1277,
      "斜": 1278,
      "斤": 1279,
      "断": 1280,
      "斯": 1281,
      "新": 1282,
      "方": 1283,
      "施": 1284,
      "旁": 1285,
      "旅": 1286,
      "旋": 1287,
      "族": 1288,
      "旗": 1289,
      "无": 1290,
      "既": 1291,
      "日": 1292,
      "旦": 1293,
      "旧": 1294,
      "旨": 1295,
      "早": 1296,
      "旬": 1297,
      "旱": 1298,
      "时": 1299,
      "昂": 1300,
      "明": 1301,
      "易": 1302,
      "星": 1303,
      "映": 1304,
      "春": 1305,
      "是": 1306,
      "显": 1307,
      "晋": 1308,
      "晒": 1309,
      "晓": 1310,
      "晕": 1311,
      "晚": 1312,
      "晨": 1313,
      "普": 1314,
      "景": 1315,
      "晰": 1316,
      "晶": 1317,
      "智": 1318,
      "暂": 1319,
      "暖": 1320,
      "暗": 1321,
      "暴": 1322,
      "曝": 1323,
      "曲": 1324,
      "更": 1325,
      "曼": 1326,
      "曾": 1327,
      "替": 1328,
      "最": 1329,
      "月": 1330,
      "有": 1331,
      "朋": 1332,
      "服": 1333,
      "朗": 1334,
      "望": 1335,
      "朝": 1336,
      "期": 1337,
      "木": 1338,
      "未": 1339,
      "末": 1340,
      "本": 1341,
      "术": 1342,
      "朱": 1343,
      "朵": 1344,
      "机": 1345,
      "杀": 1346,
      "杂": 1347,
      "权": 1348,
      "杆": 1349,
      "杉": 1350,
      "李": 1351,
      "杏": 1352,
      "材": 1353,
      "村": 1354,
      "杖": 1355,
      "杜": 1356,
      "束": 1357,
      "杠": 1358,
      "条": 1359,
      "来": 1360,
      "杯": 1361,
      "杰": 1362,
      "松": 1363,
      "板": 1364,
      "极": 1365,
      "构": 1366,
      "析": 1367,
      "林": 1368,
      "枚": 1369,
      "果": 1370,
      "枝": 1371,
      "枪": 1372,
      "枫": 1373,
      "架": 1374,
      "枷": 1375,
      "柄": 1376,
      "柏": 1377,
      "某": 1378,
      "柑": 1379,
      "染": 1380,
      "柔": 1381,
      "柜": 1382,
      "柠": 1383,
      "查": 1384,
      "柯": 1385,
      "柱": 1386,
      "柳": 1387,
      "柴": 1388,
      "栅": 1389,
      "标": 1390,
      "栈": 1391,
      "栋": 1392,
      "栏": 1393,
      "树": 1394,
      "栖": 1395,
      "校": 1396,
      "栩": 1397,
      "样": 1398,
      "核": 1399,
      "根": 1400,
      "格": 1401,
      "桂": 1402,
      "桃": 1403,
      "框": 1404,
      "案": 1405,
      "桌": 1406,
      "桑": 1407,
      "档": 1408,
      "桥": 1409,
      "桶": 1410,
      "梁": 1411,
      "梅": 1412,
      "梗": 1413,
      "梦": 1414,
      "梨": 1415,
      "梯": 1416,
      "械": 1417,
      "梵": 1418,
      "检": 1419,
      "棉": 1420,
      "棋": 1421,
      "棒": 1422,
      "棕": 1423,
      "棘": 1424,
      "森": 1425,
      "棵": 1426,
      "椅": 1427,
      "植": 1428,
      "椰": 1429,
      "楚": 1430,
      "楼": 1431,
      "概": 1432,
      "榄": 1433,
      "榈": 1434,
      "榛": 1435,
      "榜": 1436,
      "槽": 1437,
      "樂": 1438,
      "標": 1439,
      "模": 1440,
      "樣": 1441,
      "横": 1442,
      "橄": 1443,
      "橙": 1444,
      "檐": 1445,
      "檬": 1446,
      "次": 1447,
      "欢": 1448,
      "欣": 1449,
      "欧": 1450,
      "欲": 1451,
      "欺": 1452,
      "款": 1453,
      "歇": 1454,
      "歉": 1455,
      "歌": 1456,
      "止": 1457,
      "正": 1458,
      "此": 1459,
      "步": 1460,
      "武": 1461,
      "歧": 1462,
      "死": 1463,
      "殊": 1464,
      "残": 1465,
      "殖": 1466,
      "段": 1467,
      "毁": 1468,
      "毅": 1469,
      "母": 1470,
      "每": 1471,
      "毒": 1472,
      "比": 1473,
      "毕": 1474,
      "毛": 1475,
      "毫": 1476,
      "毯": 1477,
      "氏": 1478,
      "民": 1479,
      "氓": 1480,
      "气": 1481,
      "氛": 1482,
      "氢": 1483,
      "氦": 1484,
      "氧": 1485,
      "氨": 1486,
      "水": 1487,
      "永": 1488,
      "汀": 1489,
      "汁": 1490,
      "求": 1491,
      "汇": 1492,
      "汉": 1493,
      "汗": 1494,
      "池": 1495,
      "污": 1496,
      "汤": 1497,
      "汪": 1498,
      "汰": 1499,
      "汲": 1500,
      "汹": 1501,
      "汽": 1502,
      "沃": 1503,
      "沉": 1504,
      "沙": 1505,
      "沛": 1506,
      "沟": 1507,
      "没": 1508,
      "沦": 1509,
      "沮": 1510,
      "河": 1511,
      "沸": 1512,
      "油": 1513,
      "治": 1514,
      "沿": 1515,
      "泄": 1516,
      "泉": 1517,
      "泊": 1518,
      "法": 1519,
      "泛": 1520,
      "泡": 1521,
      "波": 1522,
      "泥": 1523,
      "注": 1524,
      "泰": 1525,
      "泳": 1526,
      "泻": 1527,
      "泼": 1528,
      "洁": 1529,
      "洋": 1530,
      "洗": 1531,
      "洛": 1532,
      "洞": 1533,
      "洪": 1534,
      "洲": 1535,
      "活": 1536,
      "派": 1537,
      "流": 1538,
      "浅": 1539,
      "浆": 1540,
      "测": 1541,
      "济": 1542,
      "浏": 1543,
      "浓": 1544,
      "浪": 1545,
      "浮": 1546,
      "浴": 1547,
      "海": 1548,
      "浸": 1549,
      "涂": 1550,
      "消": 1551,
      "涉": 1552,
      "涌": 1553,
      "涛": 1554,
      "涡": 1555,
      "涤": 1556,
      "润": 1557,
      "涨": 1558,
      "涩": 1559,
      "涯": 1560,
      "液": 1561,
      "涵": 1562,
      "淆": 1563,
      "淋": 1564,
      "淌": 1565,
      "淘": 1566,
      "淡": 1567,
      "深": 1568,
      "混": 1569,
      "淹": 1570,
      "添": 1571,
      "清": 1572,
      "渊": 1573,
      "渐": 1574,
      "渗": 1575,
      "渠": 1576,
      "渡": 1577,
      "温": 1578,
      "港": 1579,
      "渲": 1580,
      "渴": 1581,
      "游": 1582,
      "湍": 1583,
      "湖": 1584,
      "湾": 1585,
      "湿": 1586,
      "溃": 1587,
      "溉": 1588,
      "源": 1589,
      "準": 1590,
      "溜": 1591,
      "溢": 1592,
      "溪": 1593,
      "溯": 1594,
      "滑": 1595,
      "滕": 1596,
      "滚": 1597,
      "满": 1598,
      "滤": 1599,
      "滥": 1600,
      "滨": 1601,
      "滩": 1602,
      "滴": 1603,
      "漂": 1604,
      "漆": 1605,
      "漏": 1606,
      "演": 1607,
      "漠": 1608,
      "漫": 1609,
      "潘": 1610,
      "潜": 1611,
      "潮": 1612,
      "澄": 1613,
      "澳": 1614,
      "激": 1615,
      "瀑": 1616,
      "灌": 1617,
      "火": 1618,
      "灭": 1619,
      "灯": 1620,
      "灰": 1621,
      "灵": 1622,
      "灼": 1623,
      "灾": 1624,
      "炉": 1625,
      "炎": 1626,
      "炒": 1627,
      "炫": 1628,
      "炭": 1629,
      "炸": 1630,
      "点": 1631,
      "炼": 1632,
      "烁": 1633,
      "烈": 1634,
      "烘": 1635,
      "烟": 1636,
      "烤": 1637,
      "烦": 1638,
      "烧": 1639,
      "烫": 1640,
      "热": 1641,
      "烯": 1642,
      "烷": 1643,
      "烹": 1644,
      "焊": 1645,
      "焕": 1646,
      "焙": 1647,
      "焦": 1648,
      "焰": 1649,
      "然": 1650,
      "煎": 1651,
      "煤": 1652,
      "照": 1653,
      "煮": 1654,
      "熊": 1655,
      "熏": 1656,
      "熟": 1657,
      "熨": 1658,
      "熵": 1659,
      "燃": 1660,
      "燕": 1661,
      "燥": 1662,
      "爆": 1663,
      "爪": 1664,
      "爬": 1665,
      "爱": 1666,
      "爵": 1667,
      "父": 1668,
      "爸": 1669,
      "片": 1670,
      "版": 1671,
      "牌": 1672,
      "牙": 1673,
      "牛": 1674,
      "牢": 1675,
      "牧": 1676,
      "物": 1677,
      "牲": 1678,
      "特": 1679,
      "牺": 1680,
      "犒": 1681,
      "犬": 1682,
      "犯": 1683,
      "状": 1684,
      "犹": 1685,
      "狂": 1686,
      "狗": 1687,
      "狠": 1688,
      "狡": 1689,
      "独": 1690,
      "狭": 1691,
      "狮": 1692,
      "狱": 1693,
      "狼": 1694,
      "猎": 1695,
      "猛": 1696,
      "猜": 1697,
      "猩": 1698,
      "猫": 1699,
      "献": 1700,
      "猾": 1701,
      "獭": 1702,
      "率": 1703,
      "玉": 1704,
      "王": 1705,
      "玛": 1706,
      "玩": 1707,
      "环": 1708,
      "现": 1709,
      "玻": 1710,
      "珀": 1711,
      "珊": 1712,
      "珍": 1713,
      "珠": 1714,
      "班": 1715,
      "球": 1716,
      "理": 1717,
      "琐": 1718,
      "琳": 1719,
      "琴": 1720,
      "琶": 1721,
      "琼": 1722,
      "瑕": 1723,
      "瑚": 1724,
      "瑜": 1725,
      "瑞": 1726,
      "瑟": 1727,
      "瑶": 1728,
      "璃": 1729,
      "瓜": 1730,
      "瓦": 1731,
      "瓶": 1732,
      "瓷": 1733,
      "甘": 1734,
      "甚": 1735,
      "甜": 1736,
      "生": 1737,
      "用": 1738,
      "由": 1739,
      "甲": 1740,
      "申": 1741,
      "电": 1742,
      "男": 1743,
      "画": 1744,
      "畅": 1745,
      "界": 1746,
      "畏": 1747,
      "留": 1748,
      "畜": 1749,
      "略": 1750,
      "番": 1751,
      "畴": 1752,
      "疏": 1753,
      "疑": 1754,
      "疗": 1755,
      "疫": 1756,
      "疮": 1757,
      "疯": 1758,
      "疲": 1759,
      "疵": 1760,
      "疼": 1761,
      "疾": 1762,
      "病": 1763,
      "症": 1764,
      "痔": 1765,
      "痕": 1766,
      "痛": 1767,
      "痫": 1768,
      "痴": 1769,
      "瘦": 1770,
      "瘾": 1771,
      "癌": 1772,
      "癫": 1773,
      "登": 1774,
      "白": 1775,
      "百": 1776,
      "皂": 1777,
      "的": 1778,
      "皇": 1779,
      "皮": 1780,
      "皱": 1781,
      "皿": 1782,
      "盆": 1783,
      "盈": 1784,
      "益": 1785,
      "盏": 1786,
      "盐": 1787,
      "监": 1788,
      "盒": 1789,
      "盔": 1790,
      "盖": 1791,
      "盗": 1792,
      "盘": 1793,
      "盛": 1794,
      "盟": 1795,
      "目": 1796,
      "盲": 1797,
      "直": 1798,
      "相": 1799,
      "盹": 1800,
      "盾": 1801,
      "省": 1802,
      "眉": 1803,
      "看": 1804,
      "真": 1805,
      "眠": 1806,
      "眨": 1807,
      "眼": 1808,
      "着": 1809,
      "睁": 1810,
      "睐": 1811,
      "睛": 1812,
      "睡": 1813,
      "督": 1814,
      "睹": 1815,
      "瞄": 1816,
      "瞬": 1817,
      "瞰": 1818,
      "矛": 1819,
      "矢": 1820,
      "知": 1821,
      "矩": 1822,
      "短": 1823,
      "矮": 1824,
      "石": 1825,
      "矶": 1826,
      "矿": 1827,
      "码": 1828,
      "研": 1829,
      "砖": 1830,
      "破": 1831,
      "砸": 1832,
      "础": 1833,
      "硅": 1834,
      "硕": 1835,
      "硬": 1836,
      "确": 1837,
      "碌": 1838,
      "碍": 1839,
      "碎": 1840,
      "碑": 1841,
      "碗": 1842,
      "碰": 1843,
      "碳": 1844,
      "磁": 1845,
      "磅": 1846,
      "磐": 1847,
      "磨": 1848,
      "礁": 1849,
      "示": 1850,
      "礼": 1851,
      "社": 1852,
      "祈": 1853,
      "祉": 1854,
      "祖": 1855,
      "祝": 1856,
      "神": 1857,
      "祥": 1858,
      "票": 1859,
      "祷": 1860,
      "祸": 1861,
      "禁": 1862,
      "禅": 1863,
      "福": 1864,
      "离": 1865,
      "秀": 1866,
      "私": 1867,
      "秋": 1868,
      "种": 1869,
      "科": 1870,
      "秒": 1871,
      "秘": 1872,
      "租": 1873,
      "秤": 1874,
      "秩": 1875,
      "积": 1876,
      "称": 1877,
      "移": 1878,
      "稀": 1879,
      "程": 1880,
      "稍": 1881,
      "税": 1882,
      "稳": 1883,
      "稽": 1884,
      "稿": 1885,
      "穎": 1886,
      "穗": 1887,
      "穴": 1888,
      "究": 1889,
      "穷": 1890,
      "空": 1891,
      "穿": 1892,
      "突": 1893,
      "窃": 1894,
      "窄": 1895,
      "窍": 1896,
      "窒": 1897,
      "窗": 1898,
      "窥": 1899,
      "立": 1900,
      "竖": 1901,
      "站": 1902,
      "竞": 1903,
      "竟": 1904,
      "章": 1905,
      "童": 1906,
      "竭": 1907,
      "端": 1908,
      "竹": 1909,
      "笑": 1910,
      "笔": 1911,
      "笛": 1912,
      "符": 1913,
      "笨": 1914,
      "第": 1915,
      "笼": 1916,
      "等": 1917,
      "筋": 1918,
      "筑": 1919,
      "答": 1920,
      "策": 1921,
      "筛": 1922,
      "筹": 1923,
      "签": 1924,
      "简": 1925,
      "算": 1926,
      "管": 1927,
      "箭": 1928,
      "箱": 1929,
      "篇": 1930,
      "篝": 1931,
      "篡": 1932,
      "篮": 1933,
      "篷": 1934,
      "簸": 1935,
      "簿": 1936,
      "籍": 1937,
      "米": 1938,
      "类": 1939,
      "籽": 1940,
      "粉": 1941,
      "粒": 1942,
      "粗": 1943,
      "粘": 1944,
      "粟": 1945,
      "粮": 1946,
      "粹": 1947,
      "精": 1948,
      "粿": 1949,
      "糊": 1950,
      "糕": 1951,
      "糖": 1952,
      "糙": 1953,
      "糜": 1954,
      "糟": 1955,
      "系": 1956,
      "素": 1957,
      "索": 1958,
      "紧": 1959,
      "紫": 1960,
      "累": 1961,
      "絮": 1962,
      "繁": 1963,
      "纠": 1964,
      "红": 1965,
      "纤": 1966,
      "约": 1967,
      "级": 1968,
      "纪": 1969,
      "纬": 1970,
      "纯": 1971,
      "纱": 1972,
      "纲": 1973,
      "纳": 1974,
      "纵": 1975,
      "纷": 1976,
      "纸": 1977,
      "纹": 1978,
      "纺": 1979,
      "纽": 1980,
      "线": 1981,
      "练": 1982,
      "组": 1983,
      "细": 1984,
      "织": 1985,
      "终": 1986,
      "绊": 1987,
      "绍": 1988,
      "经": 1989,
      "绑": 1990,
      "结": 1991,
      "绕": 1992,
      "绘": 1993,
      "给": 1994,
      "络": 1995,
      "绝": 1996,
      "统": 1997,
      "绣": 1998,
      "继": 1999,
      "绩": 2000,
      "绪": 2001,
      "续": 2002,
      "绳": 2003,
      "维": 2004,
      "综": 2005,
      "绿": 2006,
      "缀": 2007,
      "缆": 2008,
      "缓": 2009,
      "编": 2010,
      "缘": 2011,
      "缝": 2012,
      "缠": 2013,
      "缩": 2014,
      "缪": 2015,
      "缴": 2016,
      "缸": 2017,
      "缺": 2018,
      "罂": 2019,
      "网": 2020,
      "罕": 2021,
      "罗": 2022,
      "罚": 2023,
      "罩": 2024,
      "罪": 2025,
      "置": 2026,
      "署": 2027,
      "羊": 2028,
      "美": 2029,
      "羔": 2030,
      "羞": 2031,
      "群": 2032,
      "羯": 2033,
      "羽": 2034,
      "翁": 2035,
      "翰": 2036,
      "翻": 2037,
      "翼": 2038,
      "耀": 2039,
      "老": 2040,
      "考": 2041,
      "者": 2042,
      "而": 2043,
      "耍": 2044,
      "耐": 2045,
      "耗": 2046,
      "耦": 2047,
      "耳": 2048,
      "耶": 2049,
      "耸": 2050,
      "聆": 2051,
      "聊": 2052,
      "聋": 2053,
      "职": 2054,
      "联": 2055,
      "聘": 2056,
      "聚": 2057,
      "聪": 2058,
      "肃": 2059,
      "肉": 2060,
      "肌": 2061,
      "肖": 2062,
      "肘": 2063,
      "肝": 2064,
      "肠": 2065,
      "股": 2066,
      "肤": 2067,
      "肥": 2068,
      "肩": 2069,
      "肪": 2070,
      "肯": 2071,
      "育": 2072,
      "肴": 2073,
      "肽": 2074,
      "肿": 2075,
      "胀": 2076,
      "胁": 2077,
      "胃": 2078,
      "胆": 2079,
      "背": 2080,
      "胎": 2081,
      "胖": 2082,
      "胜": 2083,
      "胞": 2084,
      "胡": 2085,
      "胶": 2086,
      "胸": 2087,
      "胺": 2088,
      "能": 2089,
      "脂": 2090,
      "脆": 2091,
      "脉": 2092,
      "脏": 2093,
      "脑": 2094,
      "脖": 2095,
      "脚": 2096,
      "脱": 2097,
      "脸": 2098,
      "腊": 2099,
      "腐": 2100,
      "腕": 2101,
      "腰": 2102,
      "腹": 2103,
      "腺": 2104,
      "腻": 2105,
      "腾": 2106,
      "腿": 2107,
      "膀": 2108,
      "膜": 2109,
      "膨": 2110,
      "臂": 2111,
      "臃": 2112,
      "自": 2113,
      "臭": 2114,
      "至": 2115,
      "致": 2116,
      "與": 2117,
      "舌": 2118,
      "舍": 2119,
      "舐": 2120,
      "舒": 2121,
      "舔": 2122,
      "舞": 2123,
      "舟": 2124,
      "航": 2125,
      "般": 2126,
      "舶": 2127,
      "船": 2128,
      "艇": 2129,
      "艘": 2130,
      "良": 2131,
      "艰": 2132,
      "色": 2133,
      "艳": 2134,
      "艺": 2135,
      "艾": 2136,
      "节": 2137,
      "芒": 2138,
      "芝": 2139,
      "芦": 2140,
      "芬": 2141,
      "芭": 2142,
      "花": 2143,
      "苏": 2144,
      "苔": 2145,
      "苦": 2146,
      "英": 2147,
      "苹": 2148,
      "茁": 2149,
      "茂": 2150,
      "范": 2151,
      "茅": 2152,
      "茉": 2153,
      "茎": 2154,
      "茜": 2155,
      "茨": 2156,
      "茶": 2157,
      "茸": 2158,
      "草": 2159,
      "荐": 2160,
      "荒": 2161,
      "荟": 2162,
      "荡": 2163,
      "荣": 2164,
      "荫": 2165,
      "药": 2166,
      "荷": 2167,
      "莉": 2168,
      "莎": 2169,
      "莓": 2170,
      "莫": 2171,
      "莱": 2172,
      "获": 2173,
      "菇": 2174,
      "菌": 2175,
      "菜": 2176,
      "菠": 2177,
      "菲": 2178,
      "萄": 2179,
      "萝": 2180,
      "营": 2181,
      "萧": 2182,
      "萨": 2183,
      "落": 2184,
      "著": 2185,
      "葡": 2186,
      "董": 2187,
      "葬": 2188,
      "葱": 2189,
      "蒂": 2190,
      "蒙": 2191,
      "蒸": 2192,
      "蓄": 2193,
      "蓝": 2194,
      "蓬": 2195,
      "蔬": 2196,
      "蔽": 2197,
      "蕉": 2198,
      "蕴": 2199,
      "薄": 2200,
      "薪": 2201,
      "藉": 2202,
      "藏": 2203,
      "藜": 2204,
      "藤": 2205,
      "蘑": 2206,
      "蘸": 2207,
      "虑": 2208,
      "虚": 2209,
      "虫": 2210,
      "虹": 2211,
      "虽": 2212,
      "蚀": 2213,
      "蚁": 2214,
      "蚓": 2215,
      "蚯": 2216,
      "蛇": 2217,
      "蛋": 2218,
      "蛙": 2219,
      "蛛": 2220,
      "蛮": 2221,
      "蜂": 2222,
      "蜘": 2223,
      "蜜": 2224,
      "蝎": 2225,
      "蝗": 2226,
      "蝙": 2227,
      "蝠": 2228,
      "融": 2229,
      "蟹": 2230,
      "蠢": 2231,
      "血": 2232,
      "行": 2233,
      "衔": 2234,
      "街": 2235,
      "衡": 2236,
      "衣": 2237,
      "补": 2238,
      "表": 2239,
      "衫": 2240,
      "衬": 2241,
      "衰": 2242,
      "衷": 2243,
      "袋": 2244,
      "袒": 2245,
      "袖": 2246,
      "被": 2247,
      "袭": 2248,
      "裁": 2249,
      "裂": 2250,
      "装": 2251,
      "裔": 2252,
      "裙": 2253,
      "裤": 2254,
      "裸": 2255,
      "裹": 2256,
      "褐": 2257,
      "褪": 2258,
      "西": 2259,
      "要": 2260,
      "覆": 2261,
      "见": 2262,
      "观": 2263,
      "规": 2264,
      "视": 2265,
      "览": 2266,
      "觉": 2267,
      "角": 2268,
      "解": 2269,
      "触": 2270,
      "言": 2271,
      "詹": 2272,
      "誉": 2273,
      "誓": 2274,
      "警": 2275,
      "计": 2276,
      "订": 2277,
      "认": 2278,
      "讨": 2279,
      "让": 2280,
      "训": 2281,
      "议": 2282,
      "讯": 2283,
      "记": 2284,
      "讲": 2285,
      "讶": 2286,
      "许": 2287,
      "论": 2288,
      "讼": 2289,
      "讽": 2290,
      "设": 2291,
      "访": 2292,
      "诀": 2293,
      "证": 2294,
      "评": 2295,
      "诅": 2296,
      "识": 2297,
      "诈": 2298,
      "诉": 2299,
      "诊": 2300,
      "词": 2301,
      "译": 2302,
      "试": 2303,
      "诗": 2304,
      "诚": 2305,
      "话": 2306,
      "诞": 2307,
      "诠": 2308,
      "询": 2309,
      "诣": 2310,
      "该": 2311,
      "详": 2312,
      "诫": 2313,
      "语": 2314,
      "误": 2315,
      "诱": 2316,
      "说": 2317,
      "请": 2318,
      "诸": 2319,
      "诺": 2320,
      "读": 2321,
      "课": 2322,
      "谁": 2323,
      "调": 2324,
      "谈": 2325,
      "谊": 2326,
      "谋": 2327,
      "谍": 2328,
      "谎": 2329,
      "谐": 2330,
      "谓": 2331,
      "谕": 2332,
      "谜": 2333,
      "谢": 2334,
      "谣": 2335,
      "谨": 2336,
      "谬": 2337,
      "谭": 2338,
      "谱": 2339,
      "谷": 2340,
      "豆": 2341,
      "象": 2342,
      "豪": 2343,
      "豫": 2344,
      "豺": 2345,
      "貌": 2346,
      "資": 2347,
      "贝": 2348,
      "负": 2349,
      "贡": 2350,
      "财": 2351,
      "责": 2352,
      "败": 2353,
      "账": 2354,
      "货": 2355,
      "质": 2356,
      "贩": 2357,
      "贪": 2358,
      "贫": 2359,
      "贬": 2360,
      "购": 2361,
      "贯": 2362,
      "贴": 2363,
      "贵": 2364,
      "贷": 2365,
      "贸": 2366,
      "费": 2367,
      "贺": 2368,
      "贼": 2369,
      "贾": 2370,
      "赁": 2371,
      "资": 2372,
      "赋": 2373,
      "赌": 2374,
      "赎": 2375,
      "赏": 2376,
      "赔": 2377,
      "赖": 2378,
      "赚": 2379,
      "赛": 2380,
      "赞": 2381,
      "赠": 2382,
      "赢": 2383,
      "赫": 2384,
      "走": 2385,
      "赶": 2386,
      "起": 2387,
      "超": 2388,
      "越": 2389,
      "趋": 2390,
      "趣": 2391,
      "足": 2392,
      "趾": 2393,
      "跃": 2394,
      "跋": 2395,
      "跑": 2396,
      "距": 2397,
      "跟": 2398,
      "跨": 2399,
      "跪": 2400,
      "路": 2401,
      "跳": 2402,
      "践": 2403,
      "踏": 2404,
      "踝": 2405,
      "踢": 2406,
      "踩": 2407,
      "踪": 2408,
      "蹈": 2409,
      "躁": 2410,
      "身": 2411,
      "躲": 2412,
      "躺": 2413,
      "车": 2414,
      "轨": 2415,
      "转": 2416,
      "轮": 2417,
      "软": 2418,
      "轴": 2419,
      "轶": 2420,
      "轻": 2421,
      "载": 2422,
      "轿": 2423,
      "较": 2424,
      "辅": 2425,
      "辆": 2426,
      "辈": 2427,
      "辍": 2428,
      "辑": 2429,
      "输": 2430,
      "辛": 2431,
      "辞": 2432,
      "辨": 2433,
      "辩": 2434,
      "辱": 2435,
      "边": 2436,
      "达": 2437,
      "迁": 2438,
      "迄": 2439,
      "迅": 2440,
      "过": 2441,
      "迈": 2442,
      "迎": 2443,
      "运": 2444,
      "近": 2445,
      "返": 2446,
      "还": 2447,
      "这": 2448,
      "进": 2449,
      "远": 2450,
      "违": 2451,
      "连": 2452,
      "迟": 2453,
      "迪": 2454,
      "迫": 2455,
      "迭": 2456,
      "述": 2457,
      "迷": 2458,
      "迹": 2459,
      "追": 2460,
      "退": 2461,
      "送": 2462,
      "适": 2463,
      "逃": 2464,
      "逆": 2465,
      "选": 2466,
      "逊": 2467,
      "透": 2468,
      "逐": 2469,
      "递": 2470,
      "途": 2471,
      "逗": 2472,
      "通": 2473,
      "速": 2474,
      "造": 2475,
      "逮": 2476,
      "逸": 2477,
      "逻": 2478,
      "逼": 2479,
      "逾": 2480,
      "遇": 2481,
      "遍": 2482,
      "道": 2483,
      "遗": 2484,
      "遛": 2485,
      "遣": 2486,
      "遥": 2487,
      "遭": 2488,
      "遮": 2489,
      "遵": 2490,
      "避": 2491,
      "邀": 2492,
      "邓": 2493,
      "那": 2494,
      "邦": 2495,
      "邪": 2496,
      "邮": 2497,
      "邻": 2498,
      "郁": 2499,
      "郊": 2500,
      "郎": 2501,
      "郡": 2502,
      "部": 2503,
      "都": 2504,
      "鄙": 2505,
      "配": 2506,
      "酒": 2507,
      "酚": 2508,
      "酥": 2509,
      "酪": 2510,
      "酬": 2511,
      "酮": 2512,
      "酰": 2513,
      "酱": 2514,
      "酵": 2515,
      "酷": 2516,
      "酸": 2517,
      "醇": 2518,
      "醉": 2519,
      "醒": 2520,
      "采": 2521,
      "释": 2522,
      "里": 2523,
      "重": 2524,
      "野": 2525,
      "量": 2526,
      "金": 2527,
      "鉴": 2528,
      "针": 2529,
      "钓": 2530,
      "钟": 2531,
      "钢": 2532,
      "钥": 2533,
      "钦": 2534,
      "钩": 2535,
      "钮": 2536,
      "钱": 2537,
      "钹": 2538,
      "铁": 2539,
      "铃": 2540,
      "铐": 2541,
      "铙": 2542,
      "铜": 2543,
      "铭": 2544,
      "银": 2545,
      "铺": 2546,
      "链": 2547,
      "销": 2548,
      "锁": 2549,
      "锈": 2550,
      "锌": 2551,
      "锐": 2552,
      "错": 2553,
      "锚": 2554,
      "锡": 2555,
      "锥": 2556,
      "锦": 2557,
      "键": 2558,
      "锯": 2559,
      "锻": 2560,
      "镀": 2561,
      "镇": 2562,
      "镑": 2563,
      "镜": 2564,
      "镲": 2565,
      "长": 2566,
      "關": 2567,
      "门": 2568,
      "闪": 2569,
      "闭": 2570,
      "问": 2571,
      "闯": 2572,
      "闰": 2573,
      "闲": 2574,
      "间": 2575,
      "闷": 2576,
      "闹": 2577,
      "闻": 2578,
      "阅": 2579,
      "阈": 2580,
      "阐": 2581,
      "阔": 2582,
      "队": 2583,
      "阱": 2584,
      "防": 2585,
      "阳": 2586,
      "阴": 2587,
      "阵": 2588,
      "阶": 2589,
      "阻": 2590,
      "阿": 2591,
      "附": 2592,
      "际": 2593,
      "陆": 2594,
      "陈": 2595,
      "陋": 2596,
      "陌": 2597,
      "降": 2598,
      "限": 2599,
      "陡": 2600,
      "院": 2601,
      "除": 2602,
      "险": 2603,
      "陪": 2604,
      "陳": 2605,
      "陶": 2606,
      "陷": 2607,
      "隆": 2608,
      "随": 2609,
      "隐": 2610,
      "隔": 2611,
      "隘": 2612,
      "隙": 2613,
      "障": 2614,
      "隧": 2615,
      "隶": 2616,
      "难": 2617,
      "雄": 2618,
      "雅": 2619,
      "集": 2620,
      "雇": 2621,
      "雕": 2622,
      "雨": 2623,
      "雪": 2624,
      "零": 2625,
      "雷": 2626,
      "需": 2627,
      "震": 2628,
      "霍": 2629,
      "霓": 2630,
      "霜": 2631,
      "露": 2632,
      "青": 2633,
      "静": 2634,
      "非": 2635,
      "靠": 2636,
      "面": 2637,
      "革": 2638,
      "靴": 2639,
      "鞋": 2640,
      "鞍": 2641,
      "韦": 2642,
      "韧": 2643,
      "韩": 2644,
      "音": 2645,
      "韵": 2646,
      "页": 2647,
      "顶": 2648,
      "顷": 2649,
      "项": 2650,
      "顺": 2651,
      "须": 2652,
      "顽": 2653,
      "顾": 2654,
      "顿": 2655,
      "预": 2656,
      "领": 2657,
      "颈": 2658,
      "频": 2659,
      "颖": 2660,
      "颗": 2661,
      "题": 2662,
      "颜": 2663,
      "额": 2664,
      "颠": 2665,
      "颤": 2666,
      "风": 2667,
      "飓": 2668,
      "飘": 2669,
      "飙": 2670,
      "飞": 2671,
      "食": 2672,
      "餐": 2673,
      "饥": 2674,
      "饪": 2675,
      "饭": 2676,
      "饮": 2677,
      "饰": 2678,
      "饱": 2679,
      "饲": 2680,
      "饵": 2681,
      "饼": 2682,
      "饿": 2683,
      "馅": 2684,
      "馆": 2685,
      "馈": 2686,
      "首": 2687,
      "香": 2688,
      "馨": 2689,
      "马": 2690,
      "驰": 2691,
      "驱": 2692,
      "驳": 2693,
      "驶": 2694,
      "驼": 2695,
      "驾": 2696,
      "驿": 2697,
      "骂": 2698,
      "骆": 2699,
      "验": 2700,
      "骑": 2701,
      "骗": 2702,
      "骚": 2703,
      "骤": 2704,
      "骨": 2705,
      "骼": 2706,
      "高": 2707,
      "鬃": 2708,
      "鬼": 2709,
      "魁": 2710,
      "魂": 2711,
      "魅": 2712,
      "魔": 2713,
      "鱼": 2714,
      "鲁": 2715,
      "鲜": 2716,
      "鲤": 2717,
      "鸟": 2718,
      "鸡": 2719,
      "鸣": 2720,
      "鹅": 2721,
      "鹉": 2722,
      "鹦": 2723,
      "鹰": 2724,
      "鹿": 2725,
      "麦": 2726,
      "麸": 2727,
      "麻": 2728,
      "黄": 2729,
      "黑": 2730,
      "默": 2731,
      "鼓": 2732,
      "鼠": 2733,
      "鼬": 2734,
      "鼻": 2735,
      "齐": 2736,
      "齿": 2737,
      "龄": 2738,
      "龙": 2739,
      "구": 2740,
      "금": 2741,
      "기": 2742,
      "드": 2743,
      "마": 2744,
      "매": 2745,
      "번": 2746,
      "사": 2747,
      "약": 2748,
      "역": 2749,
      "이": 2750,
      "지": 2751,
      "코": 2752,
      "트": 2753,
      "판": 2754,
      "하": 2755,
      "현": 2756,
      "️": 2757,
      "！": 2758,
      "＃": 2759,
      "％": 2760,
      "＆": 2761,
      "（": 2762,
      "）": 2763,
      "，": 2764,
      "：": 2765,
      "；": 2766,
      "？": 2767,
      "𝑡": 2768,
      "𝑢": 2769,
      "𝑤": 2770,
      "𝑥": 2771,
      "𝑦": 2772,
      "𝛿": 2773,
      "🌍": 2774,
      "🌐": 2775,
      "🌲": 2776,
      "🌳": 2777,
      "🎉": 2778,
      "🎓": 2779,
      "🎨": 2780,
      "🎮": 2781,
      "👇": 2782,
      "👻": 2783,
      "💚": 2784,
      "💡": 2785,
      "💭": 2786,
      "💰": 2787,
      "💻": 2788,
      "💼": 2789,
      "📈": 2790,
      "📊": 2791,
      "🔎": 2792,
      "🔐": 2793,
      "🔮": 2794,
      "😂": 2795,
      "🚀": 2796,
      "🚫": 2797,
      "🤔": 2798,
      "🤖": 2799,
      "🤝": 2800,
      "on": 2801,
      "er": 2802,
      "in": 2803,
      "``": 2804,
      "at": 2805,
      "使用": 2806,
      "re": 2807,
      "可以": 2808,
      "st": 2809,
      "一个": 2810,
      "en": 2811,
      "or": 2812,
      "le": 2813,
      "--": 2814,
      "```": 2815,
      "al": 2816,
      "an": 2817,
      "it": 2818,
      "se": 2819,
      "ar": 2820,
      "ct": 2821,
      "数据": 2822,
      "am": 2823,
      "ro": 2824,
      ");": 2825,
      "es": 2826,
      "ut": 2827,
      "ion": 2828,
      "可能": 2829,
      "我们": 2830,
      "提供": 2831,
      "as": 2832,
      "00": 2833,
      "et": 2834,
      "co": 2835,
      "th": 2836,
      "ic": 2837,
      "ent": 2838,
      "创建": 2839,
      "lo": 2840,
      "im": 2841,
      "de": 2842,
      "需要": 2843,
      "您的": 2844,
      "ur": 2845,
      "ing": 2846,
      "//": 2847,
      "如果": 2848,
      "con": 2849,
      "id": 2850,
      "以下": 2851,
      "ch": 2852,
      "代码": 2853,
      "ate": 2854,
      "el": 2855,
      "ex": 2856,
      "ag": 2857,
      "您可以": 2858,
      "文件": 2859,
      "他们": 2860,
      "程序": 2861,
      "ri": 2862,
      "un": 2863,
      "问题": 2864,
      "方法": 2865,
      "服务": 2866,
      "ac": 2867,
      "信息": 2868,
      "中的": 2869,
      "ap": 2870,
      "通过": 2871,
      "int": 2872,
      "例如": 2873,
      "其他": 2874,
      "ht": 2875,
      "应用": 2876,
      "()": 2877,
      "包括": 2878,
      "如何": 2879,
      "is": 2880,
      "用户": 2881,
      "帮助": 2882,
      "进行": 2883,
      "ad": 2884,
      "函数": 2885,
      "ame": 2886,
      "----": 2887,
      "ub": 2888,
      "什么": 2889,
      "这个": 2890,
      "um": 2891,
      "这些": 2892,
      "pt": 2893,
      "用于": 2894,
      "ed": 2895,
      "ue": 2896,
      "us": 2897,
      "res": 2898,
      "工作": 2899,
      "是一个": 2900,
      "ig": 2901,
      "任何": 2902,
      "ul": 2903,
      "to": 2904,
      "计算": 2905,
      "il": 2906,
      "一些": 2907,
      "ve": 2908,
      "示例": 2909,
      "em": 2910,
      "时间": 2911,
      "oo": 2912,
      "AI": 2913,
      "应用程序": 2914,
      "com": 2915,
      "每个": 2916,
      "客户": 2917,
      "and": 2918,
      "ext": 2919,
      "ort": 2920,
      "==": 2921,
      "di": 2922,
      "</": 2923,
      "for": 2924,
      "10": 2925,
      "tp": 2926,
      "语言": 2927,
      "age": 2928,
      "ata": 2929,
      "技术": 2930,
      "PI": 2931,
      "\",": 2932,
      "作为": 2933,
      "系统": 2934,
      "模型": 2935,
      "tr": 2936,
      "你的": 2937,
      "cl": 2938,
      "所有": 2939,
      "不同": 2940,
      "if": 2941,
      "pe": 2942,
      "av": 2943,
      "ne": 2944,
      "port": 2945,
      "Re": 2946,
      "ab": 2947,
      "处理": 2948,
      "设置": 2949,
      "项目": 2950,
      "API": 2951,
      "om": 2952,
      "选择": 2953,
      "ver": 2954,
      "\":": 2955,
      "sh": 2956,
      "它们": 2957,
      "po": 2958,
      "输入": 2959,
      "ation": 2960,
      "put": 2961,
      "确保": 2962,
      "act": 2963,
      "=\"": 2964,
      "学习": 2965,
      "重要": 2966,
      "ass": 2967,
      "name": 2968,
      "In": 2969,
      "do": 2970,
      "pl": 2971,
      "开发": 2972,
      "生成": 2973,
      "以下是": 2974,
      "cri": 2975,
      "然后": 2976,
      "20": 2977,
      "ol": 2978,
      "yth": 2979,
      "const": 2980,
      "网站": 2981,
      "http": 2982,
      "ython": 2983,
      "我的": 2984,
      "文本": 2985,
      "Ch": 2986,
      "cript": 2987,
      "工具": 2988,
      "一种": 2989,
      "运行": 2990,
      "字符": 2991,
      "目标": 2992,
      "://": 2993,
      "定义": 2994,
      "rom": 2995,
      "fi": 2996,
      "命令": 2997,
      "ay": 2998,
      "添加": 2999,
      "Con": 3000,
      "GP": 3001,
      "特定": 3002,
      "str": 3003,
      "ma": 3004,
      "是否": 3005,
      "具有": 3006,
      "方式": 3007,
      "解决": 3008,
      "公司": 3009,
      "创建一个": 3010,
      "get": 3011,
      "pen": 3012,
      "没有": 3013,
      "测试": 3014,
      "以及": 3015,
      "(\"": 3016,
      "应该": 3017,
      "分析": 3018,
      "执行": 3019,
      "包含": 3020,
      "12": 3021,
      "访问": 3022,
      "GPT": 3023,
      "('": 3024,
      "注意": 3025,
      "团队": 3026,
      "管理": 3027,
      "类型": 3028,
      "内容": 3029,
      "ck": 3030,
      "te": 3031,
      "js": 3032,
      "data": 3033,
      "https": 3034,
      "操作": 3035,
      "li": 3036,
      "当然": 3037,
      "ult": 3038,
      "ce": 3039,
      "import": 3040,
      "检查": 3041,
      "游戏": 3042,
      "ack": 3043,
      "服务器": 3044,
      "wor": 3045,
      "实现": 3046,
      "任务": 3047,
      "根据": 3048,
      "ction": 3049,
      "他们的": 3050,
      "SS": 3051,
      "对象": 3052,
      "软件": 3053,
      "_m": 3054,
      "ST": 3055,
      "元素": 3056,
      "存储": 3057,
      "情况": 3058,
      "ect": 3059,
      "od": 3060,
      "允许": 3061,
      "因为": 3062,
      "ret": 3063,
      "ess": 3064,
      "更新": 3065,
      "end": 3066,
      "相关": 3067,
      "设计": 3068,
      "ath": 3069,
      "机器": 3070,
      "eb": 3071,
      "out": 3072,
      "so": 3073,
      "请求": 3074,
      "网络": 3075,
      "连接": 3076,
      "结果": 3077,
      "urn": 3078,
      "Python": 3079,
      "--------": 3080,
      "div": 3081,
      "”，": 3082,
      "图像": 3083,
      "安全": 3084,
      "数字": 3085,
      "新的": 3086,
      "set": 3087,
      "',": 3088,
      "脚本": 3089,
      "搜索": 3090,
      "自己": 3091,
      "列表": 3092,
      "影响": 3093,
      "您可以使用": 3094,
      "研究": 3095,
      "能够": 3096,
      "ine": 3097,
      "因此": 3098,
      "字符串": 3099,
      "了解": 3100,
      "可以使用": 3101,
      "he": 3102,
      "pro": 3103,
      "pr": 3104,
      "产品": 3105,
      "功能": 3106,
      "开始": 3107,
      "ava": 3108,
      "up": 3109,
      "如果您": 3110,
      "ype": 3111,
      "计划": 3112,
      "参数": 3113,
      "解释": 3114,
      "new": 3115,
      "my": 3116,
      "个人": 3117,
      "可能会": 3118,
      "')": 3119,
      "lic": 3120,
      "ww": 3121,
      "各种": 3122,
      "正在": 3123,
      "这是": 3124,
      "ser": 3125,
      "变量": 3126,
      "显示": 3127,
      "支持": 3128,
      "ber": 3129,
      "pon": 3130,
      "安装": 3131,
      "找到": 3132,
      "正确": 3133,
      "资源": 3134,
      "不是": 3135,
      "错误": 3136,
      "return": 3137,
      "text": 3138,
      "对于": 3139,
      "关键": 3140,
      "关于": 3141,
      "指定": 3142,
      "返回": 3143,
      "ime": 3144,
      "\">": 3145,
      "ple": 3146,
      "确定": 3147,
      "aa": 3148,
      "ity": 3149,
      "per": 3150,
      "que": 3151,
      "完成": 3152,
      "iz": 3153,
      "val": 3154,
      "ject": 3155,
      "其中": 3156,
      "基于": 3157,
      "好的": 3158,
      "可以帮助": 3159,
      "all": 3160,
      "qu": 3161,
      "表示": 3162,
      "非常": 3163,
      "0000": 3164,
      "发送": 3165,
      "之间": 3166,
      "属性": 3167,
      "Chat": 3168,
      "两个": 3169,
      "22": 3170,
      "St": 3171,
      "ot": 3172,
      "();": 3173,
      "Java": 3174,
      "ter": 3175,
      "组件": 3176,
      "获取": 3177,
      "无法": 3178,
      "更多": 3179,
      "不同的": 3180,
      "理解": 3181,
      "ow": 3182,
      "已经": 3183,
      "平台": 3184,
      "换为": 3185,
      "步骤": 3186,
      "考虑": 3187,
      "输出": 3188,
      "你能": 3189,
      "具体": 3190,
      "告诉": 3191,
      "建议": 3192,
      "有效": 3193,
      "部分": 3194,
      "..": 3195,
      "ase": 3196,
      "并将": 3197,
      "活动": 3198,
      "能力": 3199,
      "ID": 3200,
      "ure": 3201,
      "的信息": 3202,
      "领域": 3203,
      "our": 3204,
      "中使用": 3205,
      "名称": 3206,
      "的是": 3207,
      "class": 3208,
      "消息": 3209,
      "ke": 3210,
      "ode": 3211,
      "答案": 3212,
      "),": 3213,
      "编写": 3214,
      "file": 3215,
      "print": 3216,
      "格式": 3217,
      "现在": 3218,
      "我们的": 3219,
      "ment": 3220,
      "的示例": 3221,
      "fun": 3222,
      "描述": 3223,
      "版本": 3224,
      "der": 3225,
      "希望": 3226,
      "知识": 3227,
      "日期": 3228,
      "过程": 3229,
      "string": 3230,
      "\")": 3231,
      "配置": 3232,
      "ang": 3233,
      "文档": 3234,
      "input": 3235,
      "from": 3236,
      "ial": 3237,
      "之前": 3238,
      "回答": 3239,
      "环境": 3240,
      "人员": 3241,
      "模式": 3242,
      "这种": 3243,
      "Script": 3244,
      "自己的": 3245,
      "潜在": 3246,
      "able": 3247,
      "HT": 3248,
      "控制": 3249,
      "提高": 3250,
      "提示": 3251,
      "此外": 3252,
      "通常": 3253,
      "unt": 3254,
      "quest": 3255,
      "ss": 3256,
      "组织": 3257,
      "are": 3258,
      "），": 3259,
      "ash": 3260,
      "主题": 3261,
      "电子": 3262,
      "获得": 3263,
      "”。": 3264,
      "这将": 3265,
      "这是一个": 3266,
      "ON": 3267,
      "位置": 3268,
      "情况下": 3269,
      "上的": 3270,
      "世界": 3271,
      "例子": 3272,
      "user": 3273,
      "ff": 3274,
      "但是": 3275,
      "这里": 3276,
      "需求": 3277,
      "=>": 3278,
      "Open": 3279,
      "简单": 3280,
      "ip": 3281,
      "pub": 3282,
      "设备": 3283,
      "计算机": 3284,
      "form": 3285,
      "JS": 3286,
      "您需要": 3287,
      "许多": 3288,
      "的人": 3289,
      "01": 3290,
      "专业": 3291,
      "数据库": 3292,
      "结构": 3293,
      "这样": 3294,
      "art": 3295,
      "ChatGPT": 3296,
      "function": 3297,
      "cre": 3298,
      "ker": 3299,
      "num": 3300,
      "成功": 3301,
      "联系": 3302,
      "要求": 3303,
      "public": 3304,
      "所需": 3305,
      "更改": 3306,
      "IN": 3307,
      "Pro": 3308,
      "ist": 3309,
      "识别": 3310,
      "cur": 3311,
      "尝试": 3312,
      "构建": 3313,
      "学生": 3314,
      "选项": 3315,
      "====": 3316,
      "';": 3317,
      "响应": 3318,
      "是一种": 3319,
      "涉及": 3320,
      "销售": 3321,
      "16": 3322,
      "bject": 3323,
      "gle": 3324,
      "py": 3325,
      "方案": 3326,
      "有一个": 3327,
      "训练": 3328,
      "()`": 3329,
      "Web": 3330,
      "员工": 3331,
      "状态": 3332,
      "---": 3333,
      "15": 3334,
      "::": 3335,
      "ep": 3336,
      "保持": 3337,
      "修改": 3338,
      "减少": 3339,
      "页面": 3340,
      "json": 3341,
      "var": 3342,
      "单词": 3343,
      "SE": 3344,
      "Wor": 3345,
      "复杂": 3346,
      "视频": 3347,
      "语言模型": 3348,
      "AN": 3349,
      "邮件": 3350,
      "use": 3351,
      "删除": 3352,
      "存在": 3353,
      "当前": 3354,
      "方面": 3355,
      "ions": 3356,
      "算法": 3357,
      "调用": 3358,
      "ell": 3359,
      "add": 3360,
      "ain": 3361,
      "多个": 3362,
      "成为": 3363,
      "是什么": 3364,
      "type": 3365,
      "Ap": 3366,
      "ton": 3367,
      "了一个": 3368,
      "有关": 3369,
      "ace": 3370,
      "ight": 3371,
      "11": 3372,
      "Name": 3373,
      "RE": 3374,
      "ore": 3375,
      "权限": 3376,
      "玩家": 3377,
      "自动": 3378,
      "log": 3379,
      "api": 3380,
      "An": 3381,
      "ML": 3382,
      "的数据": 3383,
      "result": 3384,
      "ast": 3385,
      "文章": 3386,
      "目录": 3387,
      "参与": 3388,
      "来说": 3389,
      "ory": 3390,
      "col": 3391,
      "app": 3392,
      "ize": 3393,
      "100": 3394,
      "Fi": 3395,
      "ail": 3396,
      "解决方案": 3397,
      "之间的": 3398,
      "))": 3399,
      "分配": 3400,
      "标题": 3401,
      "知道": 3402,
      "编程": 3403,
      "oogle": 3404,
      "essage": 3405,
      "30": 3406,
      "AL": 3407,
      "ml": 3408,
      "。”": 3409,
      "社交": 3410,
      "ith": 3411,
      "名为": 3412,
      "在线": 3413,
      "告诉我": 3414,
      "SQ": 3415,
      "准确": 3416,
      "JavaScript": 3417,
      "Com": 3418,
      "Sy": 3419,
      "并且": 3420,
      "最后": 3421,
      "移动": 3422,
      "def": 3423,
      "或者": 3424,
      "）。": 3425,
      "性的": 3426,
      "ans": 3427,
      "the": 3428,
      "13": 3429,
      "技能": 3430,
      "Str": 3431,
      "ken": 3432,
      "关系": 3433,
      "大小": 3434,
      "挑战": 3435,
      "经验": 3436,
      "表达": 3437,
      "适合": 3438,
      "可以在": 3439,
      "ice": 3440,
      "Object": 3441,
      "date": 3442,
      "mo": 3443,
      "OpenAI": 3444,
      "SQL": 3445,
      "ET": 3446,
      "[]": 3447,
      "hand": 3448,
      "path": 3449,
      "ponse": 3450,
      "_t": 3451,
      "\");": 3452,
      "Te": 3453,
      "ive": 3454,
      "为什么": 3455,
      "ers": 3456,
      "32": 3457,
      "En": 3458,
      "gr": 3459,
      "想要": 3460,
      "les": 3461,
      "ite": 3462,
      "UR": 3463,
      "len": 3464,
      "},": 3465,
      "性能": 3466,
      "是一": 3467,
      "arg": 3468,
      "ample": 3469,
      "output": 3470,
      "25": 3471,
      "Data": 3472,
      "_s": 3473,
      "net": 3474,
      "大的": 3475,
      "标准": 3476,
      "然而": 3477,
      "行为": 3478,
      "：“": 3479,
      "TP": 3480,
      "详细": 3481,
      "ind": 3482,
      "React": 3483,
      "价值": 3484,
      "必须": 3485,
      "，`": 3486,
      "ink": 3487,
      "AT": 3488,
      "Tr": 3489,
      "io": 3490,
      "tent": 3491,
      "合作": 3492,
      "在这个": 3493,
      "建立": 3494,
      "ren": 3495,
      "_id": 3496,
      "为了": 3497,
      "分享": 3498,
      "智能": 3499,
      "查询": 3500,
      "增加": 3501,
      "媒体": 3502,
      "导致": 3503,
      "表格": 3504,
      "item": 3505,
      "链接": 3506,
      "this": 3507,
      "ign": 3508,
      "key": 3509,
      "而不是": 3510,
      "ctor": 3511,
      "image": 3512,
      "word": 3513,
      "td": 3514,
      "vo": 3515,
      "我可以": 3516,
      "的方式": 3517,
      "量子": 3518,
      "验证": 3519,
      "设置为": 3520,
      "14": 3521,
      "Po": 3522,
      "Text": 3523,
      "ie": 3524,
      "利用": 3525,
      "并在": 3526,
      "快速": 3527,
      "扩展": 3528,
      "按钮": 3529,
      "提取": 3530,
      "认为": 3531,
      "课程": 3532,
      "response": 3533,
      "限制": 3534,
      "html": 3535,
      "www": 3536,
      "CT": 3537,
      "To": 3538,
      "__": 3539,
      "bo": 3540,
      "fig": 3541,
      "创造": 3542,
      "机会": 3543,
      "集成": 3544,
      "ener": 3545,
      "test": 3546,
      "机器学习": 3547,
      "back": 3548,
      "同时": 3549,
      "的任何": 3550,
      "one": 3551,
      "vers": 3552,
      "((": 3553,
      "ud": 3554,
      "事情": 3555,
      "Do": 3556,
      "地址": 3557,
      "浏览": 3558,
      "角色": 3559,
      "):": 3560,
      "**": 3561,
      "和其他": 3562,
      "数组": 3563,
      "给我": 3564,
      "，“": 3565,
      "code": 3566,
      "所需的": 3567,
      "of": 3568,
      "助于": 3569,
      "平均": 3570,
      "有助于": 3571,
      "”，“": 3572,
      "提交": 3573,
      "首先": 3574,
      "提供了": 3575,
      "ax": 3576,
      "的最": 3577,
      "的方法": 3578,
      "请注意": 3579,
      "质量": 3580,
      "value": 3581,
      "<<": 3582,
      "Google": 3583,
      "ix": 3584,
      "ws": 3585,
      "企业": 3586,
      "匹配": 3587,
      "性和": 3588,
      "我想": 3589,
      "ello": 3590,
      "电子邮件": 3591,
      "ft": 3592,
      "np": 3593,
      "字母": 3594,
      "调整": 3595,
      "utton": 3596,
      "添加到": 3597,
      "ody": 3598,
      "Un": 3599,
      "vent": 3600,
      "一步": 3601,
      "味着": 3602,
      "意味着": 3603,
      "stat": 3604,
      "orm": 3605,
      "可能需要": 3606,
      "打印": 3607,
      "相同": 3608,
      "策略": 3609,
      "og": 3610,
      "在此": 3611,
      "基本": 3612,
      "打开": 3613,
      "拥有": 3614,
      "未来": 3615,
      "err": 3616,
      "客户端": 3617,
      "Ex": 3618,
      "兴趣": 3619,
      "另一个": 3620,
      "转换为": 3621,
      "如何使用": 3622,
      "ook": 3623,
      "String": 3624,
      "RO": 3625,
      "open": 3626,
      "体验": 3627,
      "将其": 3628,
      "是的": 3629,
      "某些": 3630,
      "的问题": 3631,
      "讨论": 3632,
      "wid": 3633,
      "中心": 3634,
      "优化": 3635,
      "的代码": 3636,
      "看到": 3637,
      "继续": 3638,
      "ME": 3639,
      "Sh": 3640,
      "投资": 3641,
      "的值": 3642,
      "行业": 3643,
      "stem": 3644,
      "简单的": 3645,
      "LE": 3646,
      "cess": 3647,
      "fo": 3648,
      "发展": 3649,
      "可用于": 3650,
      "实际": 3651,
      "替换为": 3652,
      "有趣": 3653,
      "sole": 3654,
      "');": 3655,
      "ir": 3656,
      "不要": 3657,
      "传递": 3658,
      "决策": 3659,
      "展示": 3660,
      "202": 3661,
      "一下": 3662,
      "人类": 3663,
      "发现": 3664,
      "想法": 3665,
      "的一": 3666,
      "loc": 3667,
      "机器人": 3668,
      "ire": 3669,
      "python": 3670,
      "事件": 3671,
      "编辑": 3672,
      "ask": 3673,
      "++": 3674,
      "健康": 3675,
      "单击": 3676,
      "可用": 3677,
      "引用": 3678,
      "必要": 3679,
      "数量": 3680,
      "000": 3681,
      "head": 3682,
      "aaaa": 3683,
      "ange": 3684,
      "ld": 3685,
      "主要": 3686,
      "概念": 3687,
      "虚拟": 3688,
      "起来": 3689,
      "_mm": 3690,
      "\";": 3691,
      "']": 3692,
      "保存": 3693,
      "说明": 3694,
      "create": 3695,
      "gro": 3696,
      "ust": 3697,
      "yn": 3698,
      "不会": 3699,
      "假设": 3700,
      "JSON": 3701,
      "##": 3702,
      "Res": 3703,
      "Type": 3704,
      "Time": 3705,
      "ec": 3706,
      "son": 3707,
      "接受": 3708,
      "收集": 3709,
      "atch": 3710,
      "stall": 3711,
      "ponent": 3712,
      "AR": 3713,
      "Id": 3714,
      "人的": 3715,
      "循环": 3716,
      "标记": 3717,
      "模拟": 3718,
      "read": 3719,
      "abel": 3720,
      "void": 3721,
      "base": 3722,
      "以确保": 3723,
      "做出": 3724,
      "名字": 3725,
      "复制": 3726,
      "标签": 3727,
      "适当": 3728,
      "重新": 3729,
      "使用的": 3730,
      "ant": 3731,
      "开发人员": 3732,
      "128": 3733,
      "work": 3734,
      "($": 3735,
      "上下": 3736,
      "因素": 3737,
      "查看": 3738,
      "生活": 3739,
      "request": 3740,
      "以下命令": 3741,
      "如何在": 3742,
      "19": 3743,
      "['": 3744,
      "];": 3745,
      "bash": 3746,
      "body": 3747,
      "ds": 3748,
      "sp": 3749,
      "sit": 3750,
      "几个": 3751,
      "堆栈": 3752,
      "按照": 3753,
      "else": 3754,
      "ool": 3755,
      "...": 3756,
      "HTML": 3757,
      "Ser": 3758,
      "_ep": 3759,
      "并使用": 3760,
      "广泛": 3761,
      "检测": 3762,
      "目的": 3763,
      "评估": 3764,
      "lement": 3765,
      "提供的": 3766,
      "odel": 3767,
      "64": 3768,
      "Co": 3769,
      "by": 3770,
      "ho": 3771,
      "});": 3772,
      "对话": 3773,
      "条件": 3774,
      "空间": 3775,
      "调查": 3776,
      "ens": 3777,
      "config": 3778,
      "ress": 3779,
      "正确的": 3780,
      "/>": 3781,
      "IT": 3782,
      "VAL": 3783,
      "bu": 3784,
      "决于": 3785,
      "取决于": 3786,
      "旨在": 3787,
      "水平": 3788,
      "的新": 3789,
      "范围": 3790,
      "max": 3791,
      "={": 3792,
      "git": 3793,
      "ude": 3794,
      "你可以": 3795,
      "字段": 3796,
      "改进": 3797,
      "的内容": 3798,
      "社区": 3799,
      "第三": 3800,
      "dex": 3801,
      "ush": 3802,
      "token": 3803,
      "----------------": 3804,
      "System": 3805,
      "上下文": 3806,
      "Get": 3807,
      "Mo": 3808,
      "ies": 3809,
      "仍然": 3810,
      "变化": 3811,
      "第二": 3812,
      "HTTP": 3813,
      "width": 3814,
      "_epi": 3815,
      "专注": 3816,
      "出现": 3817,
      "制作": 3818,
      "您还": 3819,
      "感到": 3820,
      "第一个": 3821,
      "语句": 3822,
      "读取": 3823,
      "数据的": 3824,
      "连接到": 3825,
      "App": 3826,
      "50": 3827,
      "`，": 3828,
      "v2": 3829,
      "};": 3830,
      "介绍": 3831,
      "你好": 3832,
      "后的": 3833,
      "哪些": 3834,
      "市场": 3835,
      "有任何": 3836,
      "点的": 3837,
      "轻松": 3838,
      "这可能": 3839,
      "std": 3840,
      "curren": 3841,
      "社交媒体": 3842,
      "My": 3843,
      "User": 3844,
      "fa": 3845,
      "your": 3846,
      "到的": 3847,
      "特征": 3848,
      "背景": 3849,
      "虽然": 3850,
      "记录": 3851,
      "跟踪": 3852,
      "路径": 3853,
      "如果你": 3854,
      "doc": 3855,
      "Col": 3856,
      "IP": 3857,
      "ach": 3858,
      "lay": 3859,
      "产生": 3860,
      "保护": 3861,
      "基础": 3862,
      "持续": 3863,
      "系列": 3864,
      "自定义": 3865,
      "艺术": 3866,
      "）：": 3867,
      "uth": 3868,
      "low": 3869,
      "您可以在": 3870,
      "ild": 3871,
      "cket": 3872,
      "Form": 3873,
      "OR": 3874,
      "UT": 3875,
      "_name": 3876,
      "yle": 3877,
      "zure": 3878,
      "检索": 3879,
      "迁移": 3880,
      "预测": 3881,
      "org": 3882,
      "18": 3883,
      "Cl": 3884,
      "],": 3885,
      "gin": 3886,
      "ph": 3887,
      "令牌": 3888,
      "喜欢": 3889,
      "感谢": 3890,
      "报告": 3891,
      "电影": 3892,
      "长度": 3893,
      "集合": 3894,
      "lob": 3895,
      "Hello": 3896,
      "aw": 3897,
      "ise": 3898,
      "ient": 3899,
      "ps": 3900,
      "传统": 3901,
      "单元": 3902,
      "情感": 3903,
      "改变": 3904,
      "模块": 3905,
      "过滤": 3906,
      "count": 3907,
      "注意的是": 3908,
      "Ab": 3909,
      "af": 3910,
      "df": 3911,
      "ql": 3912,
      "sc": 3913,
      "一次": 3914,
      "内存": 3915,
      "最终": 3916,
      "来自": 3917,
      "组合": 3918,
      "ref": 3919,
      "sv": 3920,
      "sub": 3921,
      "准备": 3922,
      "加载": 3923,
      "原因": 3924,
      "我会": 3925,
      "语法": 3926,
      "遵循": 3927,
      "ascript": 3928,
      "avascript": 3929,
      "Th": 3930,
      "_p": 3931,
      "`。": 3932,
      "ai": 3933,
      "min": 3934,
      "ry": 3935,
      "with": 3936,
      "业务": 3937,
      "小时": 3938,
      "成本": 3939,
      "颜色": 3940,
      "start": 3941,
      "loud": 3942,
      "55": 3943,
      "ER": 3944,
      "HE": 3945,
      "cd": 3946,
      "xx": 3947,
      "一起": 3948,
      "交易": 3949,
      "以便": 3950,
      "传感": 3951,
      "区域": 3952,
      "反馈": 3953,
      "定制": 3954,
      "成员": 3955,
      "是在": 3956,
      "清晰": 3957,
      "的能力": 3958,
      "自然": 3959,
      "风格": 3960,
      "可以通过": 3961,
      "并将其": 3962,
      "URL": 3963,
      "专注于": 3964,
      "传感器": 3965,
      "));": 3966,
      "Cli": 3967,
      "Element": 3968,
      "__m": 3969,
      "ait": 3970,
      "vate": 3971,
      "内部": 3972,
      "商业": 3973,
      "沟通": 3974,
      "install": 3975,
      "let": 3976,
      "ument": 3977,
      "示例中": 3978,
      "128i": 3979,
      "__m128i": 3980,
      "DF": 3981,
      "EX": 3982,
      "吸引": 3983,
      "唯一": 3984,
      "常见": 3985,
      "总的": 3986,
      "等待": 3987,
      "营销": 3988,
      "indo": 3989,
      "应用程序的": 3990,
      "true": 3991,
      "表达式": 3992,
      "总的来说": 3993,
      "AS": 3994,
      "Ac": 3995,
      "DAN": 3996,
      "Mic": 3997,
      "ia": 3998,
      "依赖": 3999,
      "初始": 4000,
      "发生": 4001,
      "启动": 4002,
      "有用": 4003,
      "要在": 4004,
      "这意味着": 4005,
      "采取": 4006,
      "ery": 4007,
      "========": 4008,
      "move": 4009,
      "Test": 4010,
      "发布": 4011,
      "有什么": 4012,
      "期间": 4013,
      "的文件": 4014,
      "维护": 4015,
      "随机": 4016,
      "requ": 4017,
      "数据集": 4018,
      "用户的": 4019,
      "cv2": 4020,
      "par": 4021,
      "wh": 4022,
      "免费": 4023,
      "大量": 4024,
      "意义": 4025,
      "攻击": 4026,
      "框架": 4027,
      "购买": 4028,
      "鼓励": 4029,
      "idd": 4030,
      "color": 4031,
      "box": 4032,
      "CO": 4033,
      "De": 4034,
      "be": 4035,
      "line": 4036,
      "prom": 4037,
      "ule": 4038,
      "历史": 4039,
      "工程": 4040,
      "形式": 4041,
      "职业": 4042,
      "运动": 4043,
      "逻辑": 4044,
      "clude": 4045,
      "类型的": 4046,
      "cker": 4047,
      "允许您": 4048,
      "相关的": 4049,
      "current": 4050,
      "SV": 4051,
      "db": 4052,
      "gth": 4053,
      "send": 4054,
      "一旦": 4055,
      "原始": 4056,
      "培训": 4057,
      "科学": 4058,
      "类似": 4059,
      "请告诉我": 4060,
      "阅读": 4061,
      "amp": 4062,
      "文件中": 4063,
      "帮助您": 4064,
      "client": 4065,
      "Request": 4066,
      "ations": 4067,
      "潜在客户": 4068,
      "浏览器": 4069,
      "Client": 4070,
      "36": 4071,
      "80": 4072,
      "Azure": 4073,
      "javascript": 4074,
      "ob": 4075,
      "使其": 4076,
      "密码": 4077,
      "故事": 4078,
      "积极": 4079,
      "聊天": 4080,
      "记住": 4081,
      "避免": 4082,
      "example": 4083,
      "und": 4084,
      "ull": 4085,
      "因为它": 4086,
      "':": 4087,
      "CSS": 4088,
      "OS": 4089,
      "WS": 4090,
      "man": 4091,
      "会议": 4092,
      "作用": 4093,
      "独特": 4094,
      "高效": 4095,
      "include": 4096,
      "react": 4097,
      "我们可以": 4098,
      "img": 4099,
      "可以帮助您": 4100,
      "这样的": 4101,
      "Component": 4102,
      "So": 4103,
      "Val": 4104,
      "gg": 4105,
      "map": 4106,
      "代表": 4107,
      "共享": 4108,
      "工智能": 4109,
      "的重要": 4110,
      "的文本": 4111,
      "符合": 4112,
      "规则": 4113,
      "适应": 4114,
      "我们使用": 4115,
      "lock": 4116,
      "3D": 4117,
      "Al": 4118,
      "CA": 4119,
      "ave": 4120,
      "iv": 4121,
      "ler": 4122,
      "push": 4123,
      "动态": 4124,
      "改善": 4125,
      "材料": 4126,
      "由于": 4127,
      "的具体": 4128,
      "称为": 4129,
      "ative": 4130,
      "我们将": 4131,
      "url": 4132,
      "shell": 4133,
      "ner": 4134,
      "ual": 4135,
      "vice": 4136,
      "与其他": 4137,
      "为您": 4138,
      "互动": 4139,
      "优先": 4140,
      "优势": 4141,
      "实时": 4142,
      "技巧": 4143,
      "行动": 4144,
      "额外": 4145,
      "ert": 4146,
      "style": 4147,
      "content": 4148,
      "umber": 4149,
      "nect": 4150,
      "PE": 4151,
      "message": 4152,
      "序列": 4153,
      "我很": 4154,
      "或其他": 4155,
      "抱歉": 4156,
      "探索": 4157,
      "的影响": 4158,
      "距离": 4159,
      "index": 4160,
      "ary": 4161,
      "eld": 4162,
      "当然可以": 4163,
      "update": 4164,
      "PO": 4165,
      "no": 4166,
      "tal": 4167,
      "一样": 4168,
      "分布": 4169,
      "动作": 4170,
      "大型": 4171,
      "总之": 4172,
      "指南": 4173,
      "整数": 4174,
      "文化": 4175,
      "易于": 4176,
      "的工作": 4177,
      "直接": 4178,
      "端口": 4179,
      "编码": 4180,
      "翻译": 4181,
      "那么": 4182,
      "oot": 4183,
      "soft": 4184,
      "Be": 4185,
      "go": 4186,
      "办公": 4187,
      "在您的": 4188,
      "带有": 4189,
      "查找": 4190,
      "生产": 4191,
      "终端": 4192,
      "解析": 4193,
      "让我们": 4194,
      "还有": 4195,
      "高度": 4196,
      "高级": 4197,
      "可以用于": 4198,
      "ages": 4199,
      "rivate": 4200,
      "Ref": 4201,
      "iew": 4202,
      "_mm_": 4203,
      "Ad": 4204,
      "button": 4205,
      "gre": 4206,
      "op": 4207,
      "sr": 4208,
      "及其": 4209,
      "寻找": 4210,
      "屏幕": 4211,
      "法律": 4212,
      "流程": 4213,
      "流行": 4214,
      "的例子": 4215,
      "视觉": 4216,
      "ateg": 4217,
      "play": 4218,
      "公司的": 4219,
      "sition": 4220,
      "24": 4221,
      "hist": 4222,
      "pack": 4223,
      "人工智能": 4224,
      "促进": 4225,
      "利益": 4226,
      "只是": 4227,
      "如下": 4228,
      "我不": 4229,
      "指导": 4230,
      "朋友": 4231,
      "第一": 4232,
      "重复": 4233,
      "面的": 4234,
      "core": 4235,
      "console": 4236,
      "以下步骤": 4237,
      "vert": 4238,
      "以下是一些": 4239,
      "Fl": 4240,
      "Gener": 4241,
      "_N": 4242,
      "opt": 4243,
      "task": 4244,
      "价格": 4245,
      "完全": 4246,
      "容易": 4247,
      "最大": 4248,
      "模板": 4249,
      "比较": 4250,
      "特别": 4251,
      "的时间": 4252,
      "给定": 4253,
      "顺序": 4254,
      "ator": 4255,
      "ari": 4256,
      "rol": 4257,
      "row": 4258,
      "在此示例中": 4259,
      "error": 4260,
      "({": 4261,
      "Cloud": 4262,
      "mod": 4263,
      "ray": 4264,
      "rite": 4265,
      "ty": 4266,
      "写作": 4267,
      "博客": 4268,
      "国家": 4269,
      "好处": 4270,
      "整个": 4271,
      "节点": 4272,
      "评论": 4273,
      "ication": 4274,
      "ider": 4275,
      "以下是一个": 4276,
      "to_": 4277,
      "pose": 4278,
      "适当的": 4279,
      "办公室": 4280,
      "Dr": 4281,
      "Pr": 4282,
      "bin": 4283,
      "cy": 4284,
      "ey": 4285,
      "使得": 4286,
      "值的": 4287,
      "句子": 4288,
      "实例": 4289,
      "实践": 4290,
      "密钥": 4291,
      "强大的": 4292,
      "我希望": 4293,
      "数学": 4294,
      "的总": 4295,
      "的关键": 4296,
      "符号": 4297,
      "练习": 4298,
      "随着": 4299,
      "ard": 4300,
      "AI语言模型": 4301,
      "Cont": 4302,
      "lib": 4303,
      "handle": 4304,
      "17": 4305,
      "Im": 4306,
      "MS": 4307,
      "cor": 4308,
      "fr": 4309,
      "pre": 4310,
      "代理": 4311,
      "但它": 4312,
      "关注": 4313,
      "力的": 4314,
      "加密": 4315,
      "场景": 4316,
      "导航": 4317,
      "度和": 4318,
      "接收": 4319,
      "教育": 4320,
      "表现": 4321,
      "订单": 4322,
      "账户": 4323,
      "还是": 4324,
      "可能的": 4325,
      "iss": 4326,
      "uble": 4327,
      "系统的": 4328,
      "必要的": 4329,
      "${": 4330,
      "AA": 4331,
      "Cre": 4332,
      "ge": 4333,
      "px": 4334,
      "sql": 4335,
      "。`": 4336,
      "努力": 4337,
      "更好": 4338,
      "概述": 4339,
      "者的": 4340,
      "表单": 4341,
      "ence": 4342,
      "ali": 4343,
      "rosoft": 4344,
      "load": 4345,
      "ube": 4346,
      "作为一": 4347,
      "2023": 4348,
      "dis": 4349,
      "ka": 4350,
      "miss": 4351,
      "sum": 4352,
      "之一": 4353,
      "写一": 4354,
      "压缩": 4355,
      "大学": 4356,
      "心理": 4357,
      "才能": 4358,
      "提出": 4359,
      "收入": 4360,
      "政策": 4361,
      "最佳": 4362,
      "联网": 4363,
      "谷歌": 4364,
      "身份": 4365,
      "这一": 4366,
      "ines": 4367,
      "char": 4368,
      "您可以通过": 4369,
      "重要的是": 4370,
      "作品": 4371,
      "决定": 4372,
      "可靠": 4373,
      "我在": 4374,
      "有所": 4375,
      "混合": 4376,
      "细节": 4377,
      "费用": 4378,
      "alse": 4379,
      "itle": 4380,
      "arget": 4381,
      "eth": 4382,
      "cont": 4383,
      "重要的": 4384,
      "特定的": 4385,
      "这种情况下": 4386,
      "复杂的": 4387,
      "Gr": 4388,
      "Key": 4389,
      "Path": 4390,
      "The": 4391,
      "cr": 4392,
      "dro": 4393,
      "ile": 4394,
      "rst": 4395,
      "su": 4396,
      "中创建": 4397,
      "人们": 4398,
      "从而": 4399,
      "则表达式": 4400,
      "化的": 4401,
      "我没有": 4402,
      "架构": 4403,
      "正则表达式": 4404,
      "的一个": 4405,
      "的一些": 4406,
      "的情况下": 4407,
      "的平均": 4408,
      "经济": 4409,
      "证明": 4410,
      "通信": 4411,
      "酒吧": 4412,
      "ance": 4413,
      "arch": 4414,
      "etch": 4415,
      "chat": 4416,
      "pec": 4417,
      "double": 4418,
      "idden": 4419,
      "Kub": 4420,
      "Message": 4421,
      "otp": 4422,
      "ues": 4423,
      "xt": 4424,
      "个性": 4425,
      "令人": 4426,
      "位于": 4427,
      "受众": 4428,
      "将在": 4429,
      "并提供": 4430,
      "我需要": 4431,
      "我无法": 4432,
      "这段": 4433,
      "init": 4434,
      "env": 4435,
      "order": 4436,
      "aph": 4437,
      "vector": 4438,
      "编程语言": 4439,
      "require": 4440,
      "->": 4441,
      "='": 4442,
      "Le": 4443,
      "](": 4444,
      "])": 4445,
      "_IN": 4446,
      "last": 4447,
      "script": 4448,
      "tem": 4449,
      "table": 4450,
      "ux": 4451,
      "vider": 4452,
      "传输": 4453,
      "向量": 4454,
      "增长": 4455,
      "导入": 4456,
      "您在": 4457,
      "机制": 4458,
      "演示": 4459,
      "用例": 4460,
      "的所有": 4461,
      "菜单": 4462,
      "要使用": 4463,
      "cho": 4464,
      "export": 4465,
      "aceb": 4466,
      "umb": 4467,
      "plit": 4468,
      "团队成员": 4469,
      "编写一个": 4470,
      "length": 4471,
      "POST": 4472,
      "acebook": 4473,
      "Ar": 4474,
      "AWS": 4475,
      "By": 4476,
      "Net": 4477,
      "des": 4478,
      "model": 4479,
      "一组": 4480,
      "交互": 4481,
      "值得": 4482,
      "加入": 4483,
      "外部": 4484,
      "寻求": 4485,
      "尔夫": 4486,
      "得到": 4487,
      "欢迎": 4488,
      "深入": 4489,
      "电话": 4490,
      "的名称": 4491,
      "统计": 4492,
      "谢谢": 4493,
      "资产": 4494,
      "进一步": 4495,
      "防止": 4496,
      "默认": 4497,
      "ater": 4498,
      "时间和": 4499,
      "assword": 4500,
      "Content": 4501,
      "main": 4502,
      "server": 4503,
      "local": 4504,
      "++)": 4505,
      "`：": 4506,
      "ault": 4507,
      "eet": 4508,
      "event": 4509,
      "mb": 4510,
      "ou": 4511,
      "private": 4512,
      "s_": 4513,
      "time": 4514,
      "txt": 4515,
      "uint": 4516,
      "})": 4517,
      "不断": 4518,
      "实验": 4519,
      "所以": 4520,
      "演奏": 4521,
      "职位": 4522,
      "视图": 4523,
      "进入": 4524,
      "预订": 4525,
      "eter": 4526,
      "ices": 4527,
      "文件夹": 4528,
      "plication": 4529,
      "网站上": 4530,
      "number": 4531,
      "ync": 4532,
      "按照以下步骤": 4533,
      "Value": 4534,
      "General": 4535,
      "IF": 4536,
      "Math": 4537,
      "SO": 4538,
      "SR": 4539,
      "tri": 4540,
      "会话": 4541,
      "可视": 4542,
      "号码": 4543,
      "在这种情况下": 4544,
      "学家": 4545,
      "帐户": 4546,
      "强调": 4547,
      "房间": 4548,
      "更加": 4549,
      "的事情": 4550,
      "看起来": 4551,
      "稳定": 4552,
      "索引": 4553,
      "结束": 4554,
      "考试": 4555,
      "触发": 4556,
      "贡献": 4557,
      "适用于": 4558,
      "音乐": 4559,
      "：[": 4560,
      "search": 4561,
      "andom": 4562,
      "document": 4563,
      "As": 4564,
      "Jo": 4565,
      "TR": 4566,
      "Windo": 4567,
      "can": 4568,
      "cel": 4569,
      "not": 4570,
      "三个": 4571,
      "互联网": 4572,
      "今天": 4573,
      "制定": 4574,
      "参加": 4575,
      "插件": 4576,
      "新闻": 4577,
      "清洁": 4578,
      "的目标": 4579,
      "的结果": 4580,
      "美国": 4581,
      "试图": 4582,
      "转移": 4583,
      "镜像": 4584,
      "umn": 4585,
      "comp": 4586,
      "point": 4587,
      "然后使用": 4588,
      "00000000": 4589,
      "更多的": 4590,
      "有效地": 4591,
      "详细信息": 4592,
      "group": 4593,
      "Result": 4594,
      "options": 4595,
      "Av": 4596,
      "AME": 4597,
      "DE": 4598,
      "Facebook": 4599,
      "GET": 4600,
      "Json": 4601,
      "[\"": 4602,
      "css": 4603,
      "next": 4604,
      "他的": 4605,
      "广告": 4606,
      "敏感": 4607,
      "测量": 4608,
      "现有": 4609,
      "生命": 4610,
      "的位置": 4611,
      "竞争": 4612,
      "转换": 4613,
      "风险": 4614,
      "作为一个": 4615,
      "post": 4616,
      "Info": 4617,
      "pend": 4618,
      "自动化": 4619,
      "Trans": 4620,
      "aaaaaaaa": 4621,
      "的重要性": 4622,
      "2x": 4623,
      "99": 4624,
      "Lin": 4625,
      "MI": 4626,
      "NET": 4627,
      "du": 4628,
      "fetch": 4629,
      "target": 4630,
      "一切": 4631,
      "不能": 4632,
      "东西": 4633,
      "关闭": 4634,
      "动力": 4635,
      "和分析": 4636,
      "建筑": 4637,
      "形状": 4638,
      "您想要": 4639,
      "有价值": 4640,
      "至关": 4641,
      "该函数": 4642,
      "le_": 4643,
      "需要注意的是": 4644,
      "using": 4645,
      "它们的": 4646,
      "如果您有任何": 4647,
      "Docker": 4648,
      "ensor": 4649,
      "可视化": 4650,
      "03": 4651,
      "Dis": 4652,
      "Event": 4653,
      "List": 4654,
      "Ne": 4655,
      "VR": 4656,
      "`.": 4657,
      "hidden": 4658,
      "一系列": 4659,
      "不起": 4660,
      "丰富": 4661,
      "再次": 4662,
      "单位": 4663,
      "地方": 4664,
      "快捷": 4665,
      "您能": 4666,
      "我将": 4667,
      "捕捉": 4668,
      "映射": 4669,
      "来源": 4670,
      "此代码": 4671,
      "满足": 4672,
      "片段": 4673,
      "节奏": 4674,
      "进展": 4675,
      "难以": 4676,
      "高尔夫": 4677,
      "ernet": 4678,
      "可能不": 4679,
      "dir": 4680,
      "技术的": 4681,
      "允许用户": 4682,
      "height": 4683,
      "Move": 4684,
      "第二个": 4685,
      "Button": 4686,
      "EN": 4687,
      "Link": 4688,
      "Out": 4689,
      "_data": 4690,
      "ding": 4691,
      "flo": 4692,
      "title": 4693,
      "保留": 4694,
      "分支": 4695,
      "分钟": 4696,
      "医疗": 4697,
      "变得": 4698,
      "她的": 4699,
      "日志": 4700,
      "是使用": 4701,
      "注册": 4702,
      "硬件": 4703,
      "组成": 4704,
      "见解": 4705,
      "设施": 4706,
      "负责": 4707,
      "ins": 4708,
      "amb": 4709,
      "应用于": 4710,
      "),(": 4711,
      "希望这": 4712,
      "World": 4713,
      "ground": 4714,
      "广泛的": 4715,
      "ernetes": 4716,
      "DB": 4717,
      "Ht": 4718,
      "Log": 4719,
      "Prom": 4720,
      "UI": 4721,
      "da": 4722,
      "fut": 4723,
      "face": 4724,
      "ly": 4725,
      "rr": 4726,
      "ves": 4727,
      "ys": 4728,
      "一致": 4729,
      "一般": 4730,
      "下载": 4731,
      "公式": 4732,
      "容器": 4733,
      "怎么": 4734,
      "拿到": 4735,
      "推荐": 4736,
      "目前": 4737,
      "真的": 4738,
      "经历": 4739,
      "网页": 4740,
      "质数": 4741,
      "可以提供": 4742,
      "ute": 4743,
      "Inter": 4744,
      "State": 4745,
      "Work": 4746,
      "技能和": 4747,
      "Count": 4748,
      "Format": 4749,
      "额外的": 4750,
      "src": 4751,
      "alias": 4752,
      "Kubernetes": 4753,
      "\"]": 4754,
      "+=": 4755,
      "ci": 4756,
      "jo": 4757,
      "plo": 4758,
      "sg": 4759,
      "sch": 4760,
      "ye": 4761,
      "”（": 4762,
      "中提取": 4763,
      "主义": 4764,
      "协作": 4765,
      "单个": 4766,
      "它的": 4767,
      "实施": 4768,
      "审查": 4769,
      "并为": 4770,
      "您将": 4771,
      "样式": 4772,
      "相应": 4773,
      "运营": 4774,
      "餐厅": 4775,
      "alog": 4776,
      "then": 4777,
      "服务的": 4778,
      "list": 4779,
      "handles": 4780,
      "相同的": 4781,
      "有趣的": 4782,
      "Service": 4783,
      "Class": 4784,
      "Microsoft": 4785,
      "初始化": 4786,
      "Windows": 4787,
      "Date": 4788,
      "LL": 4789,
      "PDF": 4790,
      "auth": 4791,
      "你会": 4792,
      "信任": 4793,
      "分类": 4794,
      "可见": 4795,
      "呈现": 4796,
      "完整": 4797,
      "定期": 4798,
      "引擎": 4799,
      "引脚": 4800,
      "总结": 4801,
      "拓扑": 4802,
      "是由": 4803,
      "本地": 4804,
      "样本": 4805,
      "照片": 4806,
      "现实": 4807,
      "租赁": 4808,
      "端点": 4809,
      "绿色": 4810,
      "美元": 4811,
      "观察": 4812,
      "遍历": 4813,
      "酒店": 4814,
      "隐私": 4815,
      "ream": 4816,
      "array": 4817,
      "创建了一个": 4818,
      "工作的": 4819,
      "存储在": 4820,
      "关键词": 4821,
      "values": 4822,
      "有效的": 4823,
      "SELE": 4824,
      "File": 4825,
      "Unity": 4826,
      "status": 4827,
      "param": 4828,
      "这段代码": 4829,
      "Promise": 4830,
      "SELECT": 4831,
      ").": 4832,
      "DO": 4833,
      "Line": 4834,
      "MA": 4835,
      "_S": 4836,
      "me": 4837,
      "pip": 4838,
      "size": 4839,
      "下来": 4840,
      "充满": 4841,
      "另一": 4842,
      "咨询": 4843,
      "失败": 4844,
      "并返回": 4845,
      "很多": 4846,
      "很重要": 4847,
      "意识": 4848,
      "房产": 4849,
      "排名": 4850,
      "措施": 4851,
      "故障": 4852,
      "最好的": 4853,
      "构造": 4854,
      "标志": 4855,
      "涵盖": 4856,
      "独立": 4857,
      "申请": 4858,
      "离开": 4859,
      "论文": 4860,
      "进制": 4861,
      "文件的": 4862,
      "inter": 4863,
      "ility": 4864,
      "ema": 4865,
      "列表中": 4866,
      "process": 4867,
      "非常重要": 4868,
      "潜在的": 4869,
      "这里有": 4870,
      "gram": 4871,
      "_epi32": 4872,
      "利益相关": 4873,
      "200": 4874,
      "34": 4875,
      "<-": 4876,
      "DST": 4877,
      "Err": 4878,
      "PG": 4879,
      "eight": 4880,
      "false": 4881,
      "中创建一个": 4882,
      "优点": 4883,
      "你可以使用": 4884,
      "健身": 4885,
      "列出": 4886,
      "很抱歉": 4887,
      "我正在": 4888,
      "摘要": 4889,
      "旅行": 4890,
      "无论": 4891,
      "概率": 4892,
      "结论": 4893,
      "针对": 4894,
      "驱动": 4895,
      "麸质": 4896,
      "ats": 4897,
      "ical": 4898,
      "问题的": 4899,
      "sheet": 4900,
      "field": 4901,
      "my_": 4902,
      "build": 4903,
      "单元格": 4904,
      "自然语言": 4905,
      "33": 4906,
      "CH": 4907,
      "Core": 4908,
      "_c": 4909,
      "la": 4910,
      "label": 4911,
      "ng": 4912,
      "rat": 4913,
      "range": 4914,
      "view": 4915,
      "zon": 4916,
      "不仅": 4917,
      "休息": 4918,
      "制造": 4919,
      "叫什么": 4920,
      "哪个": 4921,
      "回复": 4922,
      "图片": 4923,
      "并确保": 4924,
      "排序": 4925,
      "插入": 4926,
      "明确": 4927,
      "替换": 4928,
      "此操作": 4929,
      "这可以": 4930,
      "遇到": 4931,
      "随时": 4932,
      "uto": 4933,
      "可能是": 4934,
      "信息的": 4935,
      "什么是": 4936,
      "igr": 4937,
      "top": 4938,
      "ney": 4939,
      "Convers": 4940,
      "\"></": 4941,
      "环境中": 4942,
      "AND": 4943,
      "prompt": 4944,
      "至关重要": 4945,
      "叫什么名字": 4946,
      "500": 4947,
      "62": 4948,
      "Ama": 4949,
      "Auth": 4950,
      "Number": 4951,
      "_back": 4952,
      "ak": 4953,
      "border": 4954,
      "mit": 4955,
      "一定": 4956,
      "专家": 4957,
      "启用": 4958,
      "图形": 4959,
      "在一个": 4960,
      "增强": 4961,
      "并不": 4962,
      "度量": 4963,
      "您可能需要": 4964,
      "感觉": 4965,
      "指标": 4966,
      "接口": 4967,
      "方向": 4968,
      "无麸质": 4969,
      "有限": 4970,
      "标识": 4971,
      "比赛": 4972,
      "窗口": 4973,
      "英语": 4974,
      "表明": 4975,
      "还可以": 4976,
      "部署": 4977,
      "高质量": 4978,
      "unch": 4979,
      "其他问题": 4980,
      "())": 4981,
      "pop": 4982,
      "Console": 4983,
      "Connect": 4984,
      "领域的": 4985,
      "知识和": 4986,
      "network": 4987,
      "host": 4988,
      "Add": 4989,
      "更好地": 4990,
      "Linux": 4991,
      "Output": 4992,
      "Http": 4993,
      "Conversation": 4994,
      "Amazon": 4995,
      "Des": 4996,
      "SD": 4997,
      "].": 4998,
      "bed": 4999,
      "her": 5000,
      "ib": 5001,
      "link": 5002,
      "上传": 5003,
      "下一个": 5004,
      "以获取": 5005,
      "全局": 5006,
      "单独": 5007,
      "卫星": 5008,
      "即使": 5009,
      "发出": 5010,
      "场所": 5011,
      "它是": 5012,
      "感兴趣": 5013,
      "扮演": 5014,
      "指示": 5015,
      "整体": 5016,
      "替代": 5017,
      "最好": 5018,
      "最新": 5019,
      "流量": 5020,
      "的大小": 5021,
      "的主要": 5022,
      "股票": 5023,
      "边界": 5024,
      "过去": 5025,
      "进程": 5026,
      "迭代": 5027,
      "通知": 5028,
      "速度": 5029,
      "都是": 5030,
      "atri": 5031,
      "可以被": 5032,
      "stor": 5033,
      "state": 5034,
      "sed": 5035,
      "ther": 5036,
      "thumb": 5037,
      "需要在": 5038,
      "代码片段": 5039,
      "帮助你": 5040,
      "文本的": 5041,
      "一种方法": 5042,
      "worker": 5043,
      "socket": 5044,
      "project": 5045,
      "'),": 5046,
      "其中包含": 5047,
      "可以帮助你": 5048,
      "query": 5049,
      "控制台": 5050,
      "需求和": 5051,
      "ainer": 5052,
      "Post": 5053,
      "大型语言模型": 5054,
      "_NAME": 5055,
      "aterial": 5056,
      "atrix": 5057,
      "02": 5058,
      "Mac": 5059,
      "Next": 5060,
      "Write": 5061,
      "]，": 5062,
      "_d": 5063,
      "dit": 5064,
      "echo": 5065,
      "node": 5066,
      "tf": 5067,
      "共同": 5068,
      "写一个": 5069,
      "动画": 5070,
      "协议": 5071,
      "参考": 5072,
      "同样": 5073,
      "四条": 5074,
      "国际": 5075,
      "坐标": 5076,
      "想象": 5077,
      "放置": 5078,
      "效率": 5079,
      "数的": 5080,
      "明白": 5081,
      "本身": 5082,
      "比特": 5083,
      "汽车": 5084,
      "滚动": 5085,
      "点击": 5086,
      "熟悉": 5087,
      "的工具": 5088,
      "的特定": 5089,
      "社会": 5090,
      "神经": 5091,
      "空格": 5092,
      "类别": 5093,
      "经典": 5094,
      "给出": 5095,
      "编译": 5096,
      "证据": 5097,
      "：<": 5098,
      "utes": 5099,
      "dev": 5100,
      "elves": 5101,
      "STR": 5102,
      "sour": 5103,
      "更多信息": 5104,
      "Token": 5105,
      "CO2": 5106,
      "sudo": 5107,
      "Code": 5108,
      "FRO": 5109,
      "Git": 5110,
      "Per": 5111,
      "Size": 5112,
      "TC": 5113,
      "categ": 5114,
      "lin": 5115,
      "pg": 5116,
      "ram": 5117,
      "为我": 5118,
      "仓库": 5119,
      "区别": 5120,
      "很难": 5121,
      "更好的": 5122,
      "每天": 5123,
      "现代": 5124,
      "节省": 5125,
      "蝙蝠": 5126,
      "观点": 5127,
      "身体": 5128,
      "这使得": 5129,
      "ont": 5130,
      "rel": 5131,
      "ster": 5132,
      "stag": 5133,
      "secon": 5134,
      "ames": 5135,
      "可能有": 5136,
      "ries": 5137,
      "时间的": 5138,
      "train": 5139,
      "生成的": 5140,
      "运行以下命令": 5141,
      "如果您想": 5142,
      "ower": 5143,
      "例子中": 5144,
      "results": 5145,
      "args": 5146,
      "量子计算机": 5147,
      "openai": 5148,
      "2021": 5149,
      "span": 5150,
      "Color": 5151,
      "Ability": 5152,
      "Socket": 5153,
      "push_back": 5154,
      "FROM": 5155,
      ")]": 5156,
      "60": 5157,
      "OT": 5158,
      "PP": 5159,
      "Pl": 5160,
      "Rate": 5161,
      "She": 5162,
      "UE": 5163,
      "_to_": 5164,
      "babel": 5165,
      "boot": 5166,
      "hour": 5167,
      "pes": 5168,
      "似乎": 5169,
      "兼容": 5170,
      "写入": 5171,
      "力和": 5172,
      "周期": 5173,
      "垃圾": 5174,
      "它将": 5175,
      "完美": 5176,
      "将是": 5177,
      "成分": 5178,
      "我该": 5179,
      "或不": 5180,
      "托管": 5181,
      "扫描": 5182,
      "是指": 5183,
      "比例": 5184,
      "活跃": 5185,
      "灵活": 5186,
      "珠宝": 5187,
      "甚至": 5188,
      "界面": 5189,
      "的用户": 5190,
      "真实": 5191,
      "缺乏": 5192,
      "缺点": 5193,
      "超过": 5194,
      "趋势": 5195,
      "运算": 5196,
      "道德": 5197,
      "都有": 5198,
      "附加": 5199,
      "高的": 5200,
      "ino": 5201,
      "可以是": 5202,
      "lect": 5203,
      "您的网站": 5204,
      "ape": 5205,
      "这个问题": 5206,
      "old": 5207,
      "olve": 5208,
      "cept": 5209,
      "axRate": 5210,
      "HTTP请求": 5211,
      "await": 5212,
      "为您提供": 5213,
      "重要的是要": 5214,
      "MIME": 5215,
      "\"\"": 5216,
      "21": 5217,
      "Hub": 5218,
      "Hand": 5219,
      "OUR": 5220,
      "_file": 5221,
      "cat": 5222,
      "est": 5223,
      "gt": 5224,
      "h1": 5225,
      "kub": 5226,
      "med": 5227,
      "run": 5228,
      "vis": 5229,
      "。[": 5230,
      "上述": 5231,
      "到达": 5232,
      "升级": 5233,
      "合并": 5234,
      "启发": 5235,
      "开放": 5236,
      "引人": 5237,
      "强大": 5238,
      "接下来": 5239,
      "更快": 5240,
      "最近": 5241,
      "机构": 5242,
      "的机会": 5243,
      "级别": 5244,
      "纹理": 5245,
      "连续": 5246,
      "：（": 5247,
      "arn": 5248,
      "async": 5249,
      "che": 5250,
      "您可以将": 5251,
      "函数的": 5252,
      "resh": 5253,
      "trans": 5254,
      "shar": 5255,
      "以下是使用": 5256,
      "older": 5257,
      "分析和": 5258,
      "根据需要": 5259,
      "搜索引擎": 5260,
      "Start": 5261,
      "default": 5262,
      "ios": 5263,
      "version": 5264,
      "给我一个": 5265,
      "的最佳": 5266,
      "个性化": 5267,
      "按照以下步骤操作": 5268,
      "Linked": 5269,
      "ambda": 5270,
      "拿到四条": 5271,
      "source": 5272,
      "蝙蝠侠": 5273,
      "'.": 5274,
      "23": 5275,
      "44": 5276,
      "65": 5277,
      "<!": 5278,
      "AD": 5279,
      "CE": 5280,
      "On": 5281,
      "Power": 5282,
      "QR": 5283,
      "US": 5284,
      "VX": 5285,
      "With": 5286,
      "_F": 5287,
      "cent": 5288,
      "find": 5289,
      "java": 5290,
      "null": 5291,
      "wn": 5292,
      "za": 5293,
      "供应": 5294,
      "创新": 5295,
      "只能": 5296,
      "在室": 5297,
      "处于": 5298,
      "多少": 5299,
      "它还": 5300,
      "很好": 5301,
      "总是": 5302,
      "截止": 5303,
      "所示": 5304,
      "整除": 5305,
      "有许多": 5306,
      "满意": 5307,
      "物理": 5308,
      "的建议": 5309,
      "立即": 5310,
      "至少": 5311,
      "衡量": 5312,
      "设定": 5313,
      "重点": 5314,
      "顶部": 5315,
      "预期": 5316,
      "store": 5317,
      "any": 5318,
      "以下代码": 5319,
      "问题或": 5320,
      "通过使用": 5321,
      "().": 5322,
      "plan": 5323,
      "place": 5324,
      "命令行": 5325,
      "SSH": 5326,
      "元素的": 5327,
      "ases": 5328,
      "格式化": 5329,
      "SEO": 5330,
      "End": 5331,
      "在这个例子中": 5332,
      "量子计算": 5333,
      "background": 5334,
      "IP地址": 5335,
      "工程师": 5336,
      "module": 5337,
      "博客文章": 5338,
      "missions": 5339,
      "inesis": 5340,
      "ethod": 5341,
      "利益相关者": 5342,
      ")`": 5343,
      "31": 5344,
      ">`": 5345,
      "BI": 5346,
      "Pam": 5347,
      "Sample": 5348,
      "Ti": 5349,
      "Ty": 5350,
      "_n": 5351,
      "_key": 5352,
      "off": 5353,
      "}}": 5354,
      "乐意": 5355,
      "你是": 5356,
      "停止": 5357,
      "几种": 5358,
      "受到": 5359,
      "可持续": 5360,
      "命名": 5361,
      "地区": 5362,
      "姿态": 5363,
      "密语": 5364,
      "帮我": 5365,
      "掌握": 5366,
      "来实现": 5367,
      "深度": 5368,
      "的软件": 5369,
      "的过程": 5370,
      "相互": 5371,
      "评分": 5372,
      "负面": 5373,
      "ark": 5374,
      "提供有关": 5375,
      "entry": 5376,
      "创建和": 5377,
      "您的应用程序": 5378,
      "函数将": 5379,
      "任何其他": 5380,
      "ify": 5381,
      "actor": 5382,
      "down": 5383,
      "area": 5384,
      "crement": 5385,
      "Provider": 5386,
      "Andro": 5387,
      "传递给": 5388,
      "的一部分": 5389,
      "headers": 5390,
      "轻松地": 5391,
      "svg": 5392,
      "Control": 5393,
      "Sheet": 5394,
      "截止日期": 5395,
      "Android": 5396,
      "4月": 5397,
      "AB": 5398,
      "Go": 5399,
      "Qu": 5400,
      "Set": 5401,
      "Tur": 5402,
      "bre": 5403,
      "pool": 5404,
      "tResult": 5405,
      "way": 5406,
      "上面": 5407,
      "亚马": 5408,
      "他人": 5409,
      "你想": 5410,
      "先前": 5411,
      "先进": 5412,
      "全球": 5413,
      "公共": 5414,
      "受欢迎": 5415,
      "和数据": 5416,
      "奖励": 5417,
      "对应": 5418,
      "尽管": 5419,
      "我有": 5420,
      "或使用": 5421,
      "授权": 5422,
      "正常": 5423,
      "特殊": 5424,
      "电脑": 5425,
      "网格": 5426,
      "订阅": 5427,
      "onus": 5428,
      "rect": 5429,
      "数据包": 5430,
      "ings": 5431,
      "tour": 5432,
      "total": 5433,
      "force": 5434,
      "技术和": 5435,
      "ift": 5436,
      "pect": 5437,
      "网站的": 5438,
      "服务器上": 5439,
      "根据您的": 5440,
      "关键字": 5441,
      "这里是一个": 5442,
      "ustom": 5443,
      "第三方": 5444,
      "php": 5445,
      "依赖项": 5446,
      "while": 5447,
      "MIME类型": 5448,
      "LinkedIn": 5449,
      "亚马逊": 5450,
      "\"$": 5451,
      "94": 5452,
      "AM": 5453,
      "DI": 5454,
      "GC": 5455,
      "Mon": 5456,
      "Man": 5457,
      "ND": 5458,
      "PH": 5459,
      "Ret": 5460,
      "Red": 5461,
      "Up": 5462,
      "_1": 5463,
      "foo": 5464,
      "iOS": 5465,
      "mand": 5466,
      "vas": 5467,
      "wr": 5468,
      "专门": 5469,
      "中添加": 5470,
      "为每个": 5471,
      "你在": 5472,
      "创意": 5473,
      "力资源": 5474,
      "反应": 5475,
      "可选": 5476,
      "各个": 5477,
      "和安全": 5478,
      "地震": 5479,
      "定向": 5480,
      "小组": 5481,
      "差异": 5482,
      "幻灯": 5483,
      "意外": 5484,
      "打破": 5485,
      "效果": 5486,
      "有些": 5487,
      "案例": 5488,
      "牌圈": 5489,
      "生物": 5490,
      "的消息": 5491,
      "简洁": 5492,
      "能源": 5493,
      "贸易": 5494,
      "足够": 5495,
      "音符": 5496,
      "音频": 5497,
      "马德": 5498,
      "step": 5499,
      "iter": 5500,
      "secur": 5501,
      "cout": 5502,
      "ick": 5503,
      "urve": 5504,
      "change": 5505,
      "代码的": 5506,
      "中的每个": 5507,
      "application": 5508,
      "append": 5509,
      "函数来": 5510,
      "dio": 5511,
      "position": 5512,
      "2022": 5513,
      "first": 5514,
      "world": 5515,
      "研究和": 5516,
      "产品的": 5517,
      "解释一下": 5518,
      "lice": 5519,
      "perty": 5520,
      "理解和": 5521,
      "inputText": 5522,
      "numpy": 5523,
      "成功的": 5524,
      "分配给": 5525,
      "感谢您": 5526,
      "xxxx": 5527,
      "常见的": 5528,
      "================": 5529,
      "365": 5530,
      "身份验证": 5531,
      "电话号码": 5532,
      "快捷方式": 5533,
      "幻灯片": 5534,
      ")(": 5535,
      ")}": 5536,
      "BB": 5537,
      "CD": 5538,
      "NL": 5539,
      "PR": 5540,
      "SU": 5541,
      "Se": 5542,
      "Tube": 5543,
      "VM": 5544,
      "Wh": 5545,
      "You": 5546,
      "bot": 5547,
      "dr": 5548,
      "dney": 5549,
      "ez": 5550,
      "fe": 5551,
      "fil": 5552,
      "google": 5553,
      "gener": 5554,
      "met": 5555,
      "pp": 5556,
      "ran": 5557,
      "ures": 5558,
      "web": 5559,
      "下午": 5560,
      "二进制": 5561,
      "估计": 5562,
      "到新": 5563,
      "否则": 5564,
      "将取决于": 5565,
      "就像": 5566,
      "帖子": 5567,
      "平面": 5568,
      "年份": 5569,
      "快乐": 5570,
      "恶意": 5571,
      "手机": 5572,
      "支付": 5573,
      "无需": 5574,
      "更容易": 5575,
      "期望": 5576,
      "正式": 5577,
      "矩阵": 5578,
      "规划": 5579,
      "资料": 5580,
      "转发": 5581,
      "除了": 5582,
      "面临": 5583,
      "root": 5584,
      "(),": 5585,
      "embed": 5586,
      "应用程序中": 5587,
      "学习和": 5588,
      "开发的": 5589,
      "应该是": 5590,
      "管理器": 5591,
      "设计和": 5592,
      "配置文件": 5593,
      "参与者": 5594,
      "1000": 5595,
      "准确的": 5596,
      "graph": 5597,
      "256": 5598,
      "Position": 5599,
      "moveit": 5600,
      "我很乐意": 5601,
      "Drag": 5602,
      "Create": 5603,
      "ratio": 5604,
      "seconds": 5605,
      "YouTube": 5606,
      "\"。": 5607,
      "/{": 5608,
      "37": 5609,
      "77": 5610,
      "Action": 5611,
      "FT": 5612,
      "Material": 5613,
      "Ph": 5614,
      "][": 5615,
      "_2": 5616,
      "case": 5617,
      "g01": 5618,
      "hi": 5619,
      "pd": 5620,
      "rame": 5621,
      "random": 5622,
      "下一步": 5623,
      "享受": 5624,
      "全面的": 5625,
      "力于": 5626,
      "和时间": 5627,
      "困难": 5628,
      "子网": 5629,
      "它来": 5630,
      "带来": 5631,
      "库存": 5632,
      "度的": 5633,
      "我是": 5634,
      "我已经": 5635,
      "捐精": 5636,
      "最多": 5637,
      "期待": 5638,
      "电线": 5639,
      "的语言": 5640,
      "的长度": 5641,
      "相信": 5642,
      "着色": 5643,
      "福利": 5644,
      "笑话": 5645,
      "简化": 5646,
      "简短": 5647,
      "结合": 5648,
      "美丽": 5649,
      "而不": 5650,
      "自我": 5651,
      "致力于": 5652,
      "请记住": 5653,
      "这涉及": 5654,
      "重定向": 5655,
      "高兴": 5656,
      "reg": 5657,
      "enc": 5658,
      "coder": 5659,
      "rig": 5660,
      "进行了": 5661,
      "email": 5662,
      "===": 5663,
      "项目的": 5664,
      "shop": 5665,
      "以下是如何": 5666,
      "定义一个": 5667,
      "make": 5668,
      "注意力": 5669,
      "tech": 5670,
      "endl": 5671,
      "安全和": 5672,
      "过程中": 5673,
      "识别和": 5674,
      "训练的": 5675,
      "Word": 5676,
      "编辑器": 5677,
      "Server": 5678,
      "您还可以使用": 5679,
      "afka": 5680,
      "CAST": 5681,
      "cord": 5682,
      "Grid": 5683,
      "值得注意的是": 5684,
      "自然语言处理": 5685,
      "WriteLine": 5686,
      "sharp": 5687,
      "PHP": 5688,
      ">>": 5689,
      "Blob": 5690,
      "Cor": 5691,
      "CSV": 5692,
      "ES": 5693,
      "EV": 5694,
      "Model": 5695,
      "Page": 5696,
      "Sim": 5697,
      "Spec": 5698,
      "TaxRate": 5699,
      "UDF": 5700,
      "]。": 5701,
      "bl": 5702,
      "car": 5703,
      "fore": 5704,
      "ha": 5705,
      "lr": 5706,
      "lon": 5707,
      "lab": 5708,
      "now": 5709,
      "ok": 5710,
      "rad": 5711,
      "split": 5712,
      "ug": 5713,
      "watch": 5714,
      "作者": 5715,
      "原则": 5716,
      "品牌": 5717,
      "商店": 5718,
      "填充": 5719,
      "声明": 5720,
      "多种": 5721,
      "字体": 5722,
      "安排": 5723,
      "实心": 5724,
      "家庭": 5725,
      "对不起": 5726,
      "导出": 5727,
      "幸福": 5728,
      "应对": 5729,
      "摄像": 5730,
      "播放": 5731,
      "旅程": 5732,
      "注释": 5733,
      "温度": 5734,
      "渲染": 5735,
      "潜力": 5736,
      "用的": 5737,
      "的步骤": 5738,
      "直到": 5739,
      "确认": 5740,
      "类的": 5741,
      "经理": 5742,
      "被认为": 5743,
      "计数": 5744,
      "购物": 5745,
      "达到": 5746,
      "那些": 5747,
      "镜头": 5748,
      "间隔": 5749,
      "障碍": 5750,
      "使用此": 5751,
      "ams": 5752,
      "lose": 5753,
      "images": 5754,
      "方法的": 5755,
      "生成一个": 5756,
      "然后将": 5757,
      "mail": 5758,
      "游戏的": 5759,
      "Python代码": 5760,
      "指定的": 5761,
      "更多关于": 5762,
      "ffer": 5763,
      "adding": 5764,
      "30天": 5765,
      "Sydney": 5766,
      "ATE": 5767,
      "irt": 5768,
      "base64": 5769,
      "space": 5770,
      "Column": 5771,
      "独特的": 5772,
      "流行的": 5773,
      "这一点": 5774,
      "生命周期": 5775,
      "Transform": 5776,
      "神经网络": 5777,
      "QR码": 5778,
      "\"、": 5779,
      "27": 5780,
      "Elast": 5781,
      "Game": 5782,
      "Lo": 5783,
      "XML": 5784,
      "_token": 5785,
      "ale": 5786,
      "csv": 5787,
      "csharp": 5788,
      "ef": 5789,
      "f5": 5790,
      "ja": 5791,
      "mer": 5792,
      "page": 5793,
      "password": 5794,
      "一天": 5795,
      "也可以": 5796,
      "充分": 5797,
      "内置": 5798,
      "创业": 5799,
      "力量": 5800,
      "动机": 5801,
      "印象": 5802,
      "和一个": 5803,
      "和服务": 5804,
      "回应": 5805,
      "城市": 5806,
      "您要": 5807,
      "教授": 5808,
      "方程": 5809,
      "比率": 5810,
      "的答案": 5811,
      "的世界": 5812,
      "的好处": 5813,
      "真正": 5814,
      "确切": 5815,
      "等于": 5816,
      "请确保": 5817,
      "财务": 5818,
      "路由": 5819,
      "进步": 5820,
      "锻炼": 5821,
      "阶段": 5822,
      "面向": 5823,
      "预算": 5824,
      "？”": 5825,
      "req": 5826,
      "ential": 5827,
      "创建新": 5828,
      "您可以按照以下步骤操作": 5829,
      "ular": 5830,
      "AI提示": 5831,
      "模型的": 5832,
      "是否有": 5833,
      "执行此操作": 5834,
      "服务器端": 5835,
      "SSSS": 5836,
      "2222": 5837,
      "ource": 5838,
      "训练数据": 5839,
      "成为一个": 5840,
      "udent": 5841,
      "static": 5842,
      "location": 5843,
      "_epi16": 5844,
      "ginx": 5845,
      "如下所示": 5846,
      "作为一名": 5847,
      "主义者": 5848,
      "Error": 5849,
      "SDK": 5850,
      "AbilitySystem": 5851,
      "embedding": 5852,
      "\"、\"": 5853,
      "Elastic": 5854,
      "*/": 5855,
      "40": 5856,
      "5个": 5857,
      "CF": 5858,
      "CR": 5859,
      "Par": 5860,
      "RA": 5861,
      "TE": 5862,
      "T_": 5863,
      "]);": 5864,
      "`@": 5865,
      "b01": 5866,
      "fl": 5867,
      "ger": 5868,
      "k实心": 5869,
      "qr": 5870,
      "ts": 5871,
      "vel": 5872,
      "ware": 5873,
      "wind": 5874,
      "wait": 5875,
      "}`": 5876,
      "与您的": 5877,
      "中选择": 5878,
      "交付": 5879,
      "交换": 5880,
      "交通": 5881,
      "仔细": 5882,
      "冲突": 5883,
      "即兴": 5884,
      "取消": 5885,
      "只有": 5886,
      "和可": 5887,
      "和支持": 5888,
      "哪里": 5889,
      "图表": 5890,
      "地点": 5891,
      "声音": 5892,
      "审计": 5893,
      "对手": 5894,
      "总数": 5895,
      "恢复": 5896,
      "您应该": 5897,
      "承诺": 5898,
      "电视": 5899,
      "登录": 5900,
      "的状态": 5901,
      "线图": 5902,
      "绘制": 5903,
      "缓存": 5904,
      "而异": 5905,
      "覆盖": 5906,
      "许可": 5907,
      "采用": 5908,
      "inner": 5909,
      "encode": 5910,
      "alph": 5911,
      "ank": 5912,
      "ated": 5913,
      "方法来": 5914,
      "中的所有": 5915,
      "ome": 5916,
      "show": 5917,
      "cription": 5918,
      "创建一个新的": 5919,
      "操作系统": 5920,
      "对象的": 5921,
      "网络安全": 5922,
      "serv": 5923,
      "发送到": 5924,
      "这是一个使用": 5925,
      "username": 5926,
      "专业人员": 5927,
      "结构化": 5928,
      "SER": 5929,
      "ailwind": 5930,
      "items": 5931,
      "14k实心": 5932,
      "Point": 5933,
      "requests": 5934,
      "Abby": 5935,
      "scss": 5936,
      "HERE": 5937,
      "promise": 5938,
      "current_": 5939,
      "display": 5940,
      "Netez": 5941,
      "trib": 5942,
      "一切都": 5943,
      "New": 5944,
      "启发式": 5945,
      "break": 5946,
      "right": 5947,
      "irtual": 5948,
      "14k实心金": 5949,
      "Netezza": 5950,
      "Block": 5951,
      "Cy": 5952,
      "Ital": 5953,
      "Kinesis": 5954,
      "LO": 5955,
      "Lambda": 5956,
      "Map": 5957,
      "Mix": 5958,
      "Press": 5959,
      "Rail": 5960,
      "SC": 5961,
      "YOUR": 5962,
      "_In": 5963,
      "_var": 5964,
      "ah": 5965,
      "auto": 5966,
      "bind": 5967,
      "hr": 5968,
      "ier": 5969,
      "lt": 5970,
      "lcd": 5971,
      "mk": 5972,
      "other": 5973,
      "r01": 5974,
      "{\\": 5975,
      "一直": 5976,
      "与我": 5977,
      "中包含": 5978,
      "交流": 5979,
      "人在": 5980,
      "修复": 5981,
      "入门": 5982,
      "兴奋": 5983,
      "原理": 5984,
      "只是一个": 5985,
      "周围": 5986,
      "器的": 5987,
      "多样": 5988,
      "如此": 5989,
      "威胁": 5990,
      "字典": 5991,
      "将数据": 5992,
      "将它们": 5993,
      "年的": 5994,
      "年轻": 5995,
      "当地": 5996,
      "您是": 5997,
      "成长": 5998,
      "我还": 5999,
      "日常": 6000,
      "时候": 6001,
      "有哪些": 6002,
      "物业": 6003,
      "的顺序": 6004,
      "监视": 6005,
      "相比": 6006,
      "粒子": 6007,
      "经常": 6008,
      "而言": 6009,
      "观众": 6010,
      "该方法": 6011,
      "银行": 6012,
      "面板": 6013,
      "ree": 6014,
      "lection": 6015,
      "icon": 6016,
      "delay": 6017,
      "connect": 6018,
      "contour": 6019,
      "()”": 6020,
      "edit": 6021,
      "resolve": 6022,
      "客户的": 6023,
      "开发者": 6024,
      "以下是如何使用": 6025,
      "运行时": 6026,
      "目标和": 6027,
      "master": 6028,
      "团队的": 6029,
      "format": 6030,
      "选项卡": 6031,
      "之间的关系": 6032,
      "###": 6033,
      "fault": 6034,
      "艺术家": 6035,
      "Default": 6036,
      "obj": 6037,
      "优先级": 6038,
      "Beh": 6039,
      "history": 6040,
      "Ava": 6041,
      "希望这可以帮助您": 6042,
      "马德里": 6043,
      "Phone": 6044,
      "Italic": 6045,
      "/*": 6046,
      "35": 6047,
      "56": 6048,
      "Bonus": 6049,
      "FC": 6050,
      "LI": 6051,
      "Ma": 6052,
      "Mark": 6053,
      "Or": 6054,
      "Over": 6055,
      "[(": 6056,
      "\\*": 6057,
      "`/": 6058,
      "ales": 6059,
      "bar": 6060,
      "cus": 6061,
      "ee": 6062,
      "match": 6063,
      "nt": 6064,
      "native": 6065,
      "nginx": 6066,
      "os": 6067,
      "sk": 6068,
      "wer": 6069,
      "windo": 6070,
      "事务": 6071,
      "事项": 6072,
      "以帮助": 6073,
      "以查看": 6074,
      "但我": 6075,
      "体育": 6076,
      "你对": 6077,
      "冒险": 6078,
      "出售": 6079,
      "分割": 6080,
      "后跟": 6081,
      "和测试": 6082,
      "在项目": 6083,
      "姓名": 6084,
      "孩子": 6085,
      "客人": 6086,
      "平方": 6087,
      "平衡": 6088,
      "开头": 6089,
      "思维": 6090,
      "意思": 6091,
      "我有一个": 6092,
      "担心": 6093,
      "排放": 6094,
      "推广": 6095,
      "收到": 6096,
      "政府": 6097,
      "星期": 6098,
      "最小": 6099,
      "有意义": 6100,
      "森林": 6101,
      "爱的": 6102,
      "特点": 6103,
      "的活动": 6104,
      "的主题": 6105,
      "的基本": 6106,
      "短语": 6107,
      "篇关于": 6108,
      "经过": 6109,
      "肥皂": 6110,
      "蛋糕": 6111,
      "解码": 6112,
      "让你": 6113,
      "负载": 6114,
      "rew": 6115,
      "amic": 6116,
      "esh": 6117,
      "我们还": 6118,
      "提供一个": 6119,
      "创建更": 6120,
      "context": 6121,
      "文件路径": 6122,
      "posit": 6123,
      "Init": 6124,
      "ply": 6125,
      "Child": 6126,
      "影响者": 6127,
      "ization": 6128,
      "quare": 6129,
      "JSX": 6130,
      "专业知识": 6131,
      "INT": 6132,
      "curl": 6133,
      "修改后的": 6134,
      "True": 6135,
      "的最新": 6136,
      "ynamic": 6137,
      "您还可以": 6138,
      "逻辑学家": 6139,
      "聊天机器人": 6140,
      "greSQL": 6141,
      "以下是一个示例": 6142,
      "container": 6143,
      "Discord": 6144,
      "PostgreSQL": 6145,
      "stagram": 6146,
      "security": 6147,
      "\"],": 6148,
      "$$": 6149,
      ")^": 6150,
      "29": 6151,
      "45": 6152,
      "48": 6153,
      "Actor": 6154,
      "Back": 6155,
      "Can": 6156,
      "PN": 6157,
      "Save": 6158,
      "TH": 6159,
      "TX": 6160,
      "Tag": 6161,
      "Tailwind": 6162,
      "UN": 6163,
      "_B": 6164,
      "bbox": 6165,
      "custom": 6166,
      "dential": 6167,
      "hn": 6168,
      "hash": 6169,
      "hello": 6170,
      "ln": 6171,
      "math": 6172,
      "msg": 6173,
      "object": 6174,
      "pand": 6175,
      "sil": 6176,
      "ugin": 6177,
      "xhr": 6178,
      "一家": 6179,
      "上安装": 6180,
      "中间": 6181,
      "之后": 6182,
      "人和": 6183,
      "任意": 6184,
      "伙伴": 6185,
      "作业": 6186,
      "你将": 6187,
      "做任何": 6188,
      "像这样": 6189,
      "入胜": 6190,
      "分数": 6191,
      "力学": 6192,
      "压力": 6193,
      "只需": 6194,
      "回调": 6195,
      "在某些": 6196,
      "好了": 6197,
      "宽度": 6198,
      "年龄": 6199,
      "或多个": 6200,
      "手动": 6201,
      "方块": 6202,
      "无限": 6203,
      "有可能": 6204,
      "棋盘": 6205,
      "植物": 6206,
      "正文": 6207,
      "每周": 6208,
      "派系": 6209,
      "物品": 6210,
      "理论": 6211,
      "的不同": 6212,
      "的游戏": 6213,
      "的有效": 6214,
      "的引用": 6215,
      "的概念": 6216,
      "相机": 6217,
      "简介": 6218,
      "绘画": 6219,
      "警报": 6220,
      "证书": 6221,
      "这可能会": 6222,
      "这可以帮助": 6223,
      "领导": 6224,
      "食物": 6225,
      "（`": 6226,
      "一个新的": 6227,
      "lev": 6228,
      "ande": 6229,
      "sess": 6230,
      "rop": 6231,
      "我们可以使用": 6232,
      "您可以尝试": 6233,
      "每个人": 6234,
      "作为输入": 6235,
      "try": 6236,
      "Read": 6237,
      "action": 6238,
      "plate": 6239,
      "plugin": 6240,
      "具有挑战": 6241,
      "访问权限": 6242,
      "检查员": 6243,
      "正在寻找": 6244,
      "plet": 6245,
      "ally": 6246,
      "filePath": 6247,
      "版本的": 6248,
      "ING": 6249,
      "Ang": 6250,
      "是一位": 6251,
      "的一般": 6252,
      "TestRail": 6253,
      "一旦您": 6254,
      "Price": 6255,
      "触发器": 6256,
      "points": 6257,
      "另一方面": 6258,
      "标识符": 6259,
      "_dim": 6260,
      "amesp": 6261,
      "引人入胜": 6262,
      "NLP": 6263,
      "AbilitySystemComponent": 6264,
      "([": 6265,
      "Am": 6266,
      "Bing": 6267,
      "Clic": 6268,
      "KE": 6269,
      "KPI": 6270,
      "Kafka": 6271,
      "PC": 6272,
      "PSR": 6273,
      "_current_": 6274,
      "gb": 6275,
      "kit": 6276,
      "mm": 6277,
      "padding": 6278,
      "udio": 6279,
      "zsh": 6280,
      "——": 6281,
      "一份": 6282,
      "一条": 6283,
      "人数": 6284,
      "信号": 6285,
      "候选": 6286,
      "分别": 6287,
      "动物": 6288,
      "同事": 6289,
      "商家": 6290,
      "大于": 6291,
      "大多": 6292,
      "它使用": 6293,
      "将您的": 6294,
      "小说": 6295,
      "并行": 6296,
      "当你": 6297,
      "思想": 6298,
      "括号": 6299,
      "指令": 6300,
      "排列": 6301,
      "提到的": 6302,
      "更具": 6303,
      "来越": 6304,
      "次数": 6305,
      "每月": 6306,
      "水果": 6307,
      "液体": 6308,
      "物体": 6309,
      "电机": 6310,
      "的好": 6311,
      "的公司": 6312,
      "的回答": 6313,
      "的原因": 6314,
      "研讨": 6315,
      "绘图": 6316,
      "表中": 6317,
      "让我": 6318,
      "词汇": 6319,
      "请随时": 6320,
      "越来越": 6321,
      "辅助": 6322,
      "通道": 6323,
      "inal": 6324,
      "orout": 6325,
      "left": 6326,
      "learn": 6327,
      "alt": 6328,
      "ros": 6329,
      "可能因": 6330,
      "coun": 6331,
      "如果我们": 6332,
      "exec": 6333,
      "rip": 6334,
      "ressed": 6335,
      "项目中": 6336,
      "docker": 6337,
      "定义了": 6338,
      "fix": 6339,
      "getElement": 6340,
      "任务的": 6341,
      "图像的": 6342,
      "消息的": 6343,
      "世界的": 6344,
      "您需要在": 6345,
      "api_key": 6346,
      "社交网络": 6347,
      "平均值": 6348,
      "npm": 6349,
      "基本的": 6350,
      "实际上": 6351,
      "虚拟环境": 6352,
      "ec_In": 6353,
      "做出贡献": 6354,
      "libr": 6355,
      "Image": 6356,
      "心理学": 6357,
      "作为一个AI语言模型": 6358,
      "aaaaaaaaaaaaaaaa": 6359,
      "丰富的": 6360,
      "float": 6361,
      "plot": 6362,
      "_Sec_In": 6363,
      "launch": 6364,
      "明白了": 6365,
      "cremental": 6366,
      "即兴演奏": 6367,
      "session": 6368,
      "Click": 6369,
      "研讨会": 6370,
      "_Sec_Incremental": 6371,
      "28": 6372,
      "3个": 6373,
      "913": 6374,
      "Bande": 6375,
      "FX": 6376,
      "Fun": 6377,
      "He": 6378,
      "Item": 6379,
      "La": 6380,
      "NOT": 6381,
      "NFT": 6382,
      "PRO": 6383,
      "Tw": 6384,
      "Vis": 6385,
      "View": 6386,
      "WHERE": 6387,
      "Your": 6388,
      "ajo": 6389,
      "bing": 6390,
      "blob": 6391,
      "cal": 6392,
      "cial": 6393,
      "dynamic": 6394,
      "glob": 6395,
      "hObject": 6396,
      "ium": 6397,
      "kg": 6398,
      "nil": 6399,
      "pc": 6400,
      "sign": 6401,
      "ven": 6402,
      "}：": 6403,
      "上运行": 6404,
      "不可": 6405,
      "不需要": 6406,
      "不知道": 6407,
      "为此": 6408,
      "乘积": 6409,
      "人士": 6410,
      "人力资源": 6411,
      "付费": 6412,
      "传达": 6413,
      "偏好": 6414,
      "内的": 6415,
      "出色": 6416,
      "分成": 6417,
      "创作": 6418,
      "卡片": 6419,
      "取得": 6420,
      "受限": 6421,
      "和处理": 6422,
      "在使用": 6423,
      "套餐": 6424,
      "始终": 6425,
      "字节": 6426,
      "它会": 6427,
      "小的": 6428,
      "就是": 6429,
      "尽可能": 6430,
      "层次": 6431,
      "异步": 6432,
      "您提供的": 6433,
      "意见": 6434,
      "感知": 6435,
      "护理": 6436,
      "教学": 6437,
      "时尚": 6438,
      "时的": 6439,
      "显著": 6440,
      "板块": 6441,
      "此脚本": 6442,
      "比如": 6443,
      "清单": 6444,
      "渴望": 6445,
      "漏洞": 6446,
      "热情": 6447,
      "的结构": 6448,
      "的响应": 6449,
      "相反": 6450,
      "看板": 6451,
      "私钥": 6452,
      "税率": 6453,
      "简历": 6454,
      "终止": 6455,
      "蓝牙": 6456,
      "谈判": 6457,
      "责任": 6458,
      "转到": 6459,
      "那里": 6460,
      "锁定": 6461,
      "除以": 6462,
      "集群": 6463,
      "霍尔": 6464,
      "stack": 6465,
      "uts": 6466,
      "可能包括": 6467,
      "中的开": 6468,
      "用户提供": 6469,
      "vestor": 6470,
      "10个": 6471,
      "abajo": 6472,
      "olid": 6473,
      "定义了一个": 6474,
      "是否存在": 6475,
      "解决问题": 6476,
      "get_": 6477,
      "操作的": 6478,
      "如果您有": 6479,
      "person": 6480,
      "22913": 6481,
      "\"))": 6482,
      "ango": 6483,
      "ffect": 6484,
      "设备的": 6485,
      "epsil": 6486,
      "复杂度": 6487,
      "目录中": 6488,
      "Trabajo": 6489,
      "words": 6490,
      "投资者": 6491,
      "保存为": 6492,
      "git_var": 6493,
      "第三个": 6494,
      "update_current_": 6495,
      "动作捕捉": 6496,
      "有所不同": 6497,
      "initial": 6498,
      "John": 6499,
      "compressed": 6500,
      "敏感信息": 6501,
      "Info6": 6502,
      "Interface": 6503,
      "schema": 6504,
      "alogix": 6505,
      "HttpRequest": 6506,
      "SampleInfo6": 6507,
      "恶意软件": 6508,
      "WordPress": 6509,
      "Italic的": 6510,
      "oroutine": 6511,
      "Bandeja": 6512,
      "受限度量": 6513,
      "229136": 6514,
      "epsilon": 6515,
      "git_vars": 6516,
      "update_current_git_vars": 6517,
      "&&": 6518,
      "><": 6519,
      "Base": 6520,
      "Drop": 6521,
      "FS": 6522,
      "Far": 6523,
      "II": 6524,
      "ION": 6525,
      "ILE": 6526,
      "Last": 6527,
      "Mod": 6528,
      "Play": 6529,
      "Rank": 6530,
      "Square": 6531,
      "cpp": 6532,
      "day": 6533,
      "mac": 6534,
      "over": 6535,
      "vb": 6536,
      "vi": 6537,
      "yy": 6538,
      "{}": 6539,
      "||": 6540,
      "一段": 6541,
      "不存在": 6542,
      "仅是": 6543,
      "以了解": 6544,
      "克服": 6545,
      "全职": 6546,
      "区块": 6547,
      "协助": 6548,
      "和使用": 6549,
      "和技术": 6550,
      "和资源": 6551,
      "固定": 6552,
      "图层": 6553,
      "在一起": 6554,
      "宇宙": 6555,
      "年人": 6556,
      "当您": 6557,
      "当我": 6558,
      "愿景": 6559,
      "成就": 6560,
      "或在": 6561,
      "截至": 6562,
      "推动": 6563,
      "提升": 6564,
      "旋转": 6565,
      "更有效地": 6566,
      "最适合": 6567,
      "有了": 6568,
      "术语": 6569,
      "机械": 6570,
      "材质": 6571,
      "来处理": 6572,
      "毒品": 6573,
      "沙盒": 6574,
      "消费": 6575,
      "独自": 6576,
      "的行": 6577,
      "的字符串": 6578,
      "的未来": 6579,
      "的基础": 6580,
      "的概率": 6581,
      "看看": 6582,
      "秘密": 6583,
      "简要": 6584,
      "约为": 6585,
      "线程": 6586,
      "释放": 6587,
      "阈值": 6588,
      "陈述": 6589,
      "饮食": 6590,
      "（）": 6591,
      "ates": 6592,
      "可以用": 6593,
      "strip": 6594,
      "sel": 6595,
      "数据进行": 6596,
      "amer": 6597,
      "room": 6598,
      "我们需要": 6599,
      "创建新的": 6600,
      "如果是": 6601,
      "程序的": 6602,
      "acc": 6603,
      "包括一个": 6604,
      "ish": 6605,
      "adow": 6606,
      "这些信息": 6607,
      "一些关于": 6608,
      "compose": 6609,
      "作为参数": 6610,
      "所有的": 6611,
      "API密钥": 6612,
      "active": 6613,
      "assign": 6614,
      "assert": 6615,
      "Index": 6616,
      "odes": 6617,
      "prop": 6618,
      "个人资料": 6619,
      "这是一种": 6620,
      "allback": 6621,
      "Stat": 6622,
      "告诉你": 6623,
      "这种情况": 6624,
      "控制器": 6625,
      "计算机视觉": 6626,
      "Worker": 6627,
      "玩家在": 6628,
      "标题和": 6629,
      "_time": 6630,
      "的最大": 6631,
      "标签的": 6632,
      "这可能涉及": 6633,
      "goal": 6634,
      "生产力": 6635,
      "types": 6636,
      "国家中心": 6637,
      "MS_IN": 6638,
      "导航到": 6639,
      "mission": 6640,
      "有所帮助": 6641,
      "chatGPT": 6642,
      "ById": 6643,
      "高尔夫国家中心": 6644,
      "DOM": 6645,
      "category": 6646,
      "我该如何": 6647,
      "活跃员工": 6648,
      "Turk": 6649,
      "urvey": 6650,
      "meta": 6651,
      "udents": 6652,
      "alpha": 6653,
      "候选人": 6654,
      "大多数": 6655,
      "霍尔传感器": 6656,
      "区块链": 6657,
      "MS_IN_": 6658,
      "\"/": 6659,
      "%。": 6660,
      ")$": 6661,
      "04": 6662,
      "2D": 6663,
      "CON": 6664,
      "DD": 6665,
      "Edit": 6666,
      "Is": 6667,
      "Main": 6668,
      "Node": 6669,
      "Row": 6670,
      "Sar": 6671,
      "Sto": 6672,
      "Vert": 6673,
      "Vari": 6674,
      "Wid": 6675,
      "_h": 6676,
      "`<": 6677,
      "a_": 6678,
      "camp": 6679,
      "dom": 6680,
      "jango": 6681,
      "mx": 6682,
      "nix": 6683,
      "namesp": 6684,
      "tin": 6685,
      "xy": 6686,
      "一只": 6687,
      "上午": 6688,
      "与您": 6689,
      "严重": 6690,
      "中获取": 6691,
      "主成分": 6692,
      "也是": 6693,
      "你需要": 6694,
      "到控制台": 6695,
      "合适": 6696,
      "垂直": 6697,
      "增量": 6698,
      "天气": 6699,
      "尚未": 6700,
      "尽力": 6701,
      "并从": 6702,
      "延迟": 6703,
      "开局": 6704,
      "引起": 6705,
      "彻底": 6706,
      "愉快": 6707,
      "我要": 6708,
      "我使用": 6709,
      "插图": 6710,
      "教程": 6711,
      "方形": 6712,
      "来计算": 6713,
      "楼层": 6714,
      "歌曲": 6715,
      "正方形": 6716,
      "每次": 6717,
      "法规": 6718,
      "理想": 6719,
      "用途": 6720,
      "的选择": 6721,
      "的元素": 6722,
      "的产品": 6723,
      "的文档": 6724,
      "监控": 6725,
      "第四": 6726,
      "管道": 6727,
      "精神": 6728,
      "绑定": 6729,
      "绩效": 6730,
      "而闻": 6731,
      "让它": 6732,
      "语音": 6733,
      "说服": 6734,
      "豺狼": 6735,
      "路线图": 6736,
      "这只是一个": 6737,
      "违规": 6738,
      "退出": 6739,
      "递归": 6740,
      "音阶": 6741,
      "顾客": 6742,
      "频率": 6743,
      "食品": 6744,
      "驾驶": 6745,
      "！”": 6746,
      "stamp": 6747,
      "stream": 6748,
      "its": 6749,
      "ded": 6750,
      "您的代码": 6751,
      "unpack": 6752,
      "());": 6753,
      "用户输入": 6754,
      "客户服务": 6755,
      "Input": 6756,
      "Instagram": 6757,
      "目标受众": 6758,
      "目标姿态": 6759,
      "Convert": 6760,
      "12月": 6761,
      "管理工具": 6762,
      "_message": 6763,
      "ender": 6764,
      "Python中": 6765,
      "正确答案": 6766,
      "错误消息": 6767,
      "per_": 6768,
      "主题的": 6769,
      "Files": 6770,
      "移动到": 6771,
      "扩展名": 6772,
      "未来的": 6773,
      "--------------------------------": 6774,
      "这可能包括": 6775,
      "layers": 6776,
      "afe": 6777,
      "Access": 6778,
      "Micha": 6779,
      "nolog": 6780,
      "_mm_unpack": 6781,
      "我希望你能": 6782,
      "的总和": 6783,
      "Joker": 6784,
      "future": 6785,
      "不仅仅是": 6786,
      "边界框": 6787,
      "经典计算机": 6788,
      "STRING": 6789,
      "运算符": 6790,
      "check": 6791,
      "Sheets": 6792,
      "Query": 6793,
      "wrap": 6794,
      "摄像机": 6795,
      "马德里高尔夫国家中心": 6796,
      "肥皂盒": 6797,
      "Angular": 6798,
      "getElementById": 6799,
      "Module": 6800,
      "Sarah": 6801,
      "而闻名": 6802,
      "Michael": 6803,
      "72": 6804,
      "Bl": 6805,
      "Bu": 6806,
      "Book": 6807,
      "DS": 6808,
      "EP": 6809,
      "E_": 6810,
      "FTP": 6811,
      "Frame": 6812,
      "Ger": 6813,
      "MAT": 6814,
      "PUT": 6815,
      "Password": 6816,
      "Random": 6817,
      "Sch": 6818,
      "Uber": 6819,
      "[[": 6820,
      "_l": 6821,
      "_stat": 6822,
      "`\"": 6823,
      "has": 6824,
      "job": 6825,
      "ling": 6826,
      "mt": 6827,
      "vm": 6828,
      "一件": 6829,
      "一名": 6830,
      "上角": 6831,
      "下的": 6832,
      "中获得": 6833,
      "人文": 6834,
      "仪表": 6835,
      "倡导": 6836,
      "假定": 6837,
      "全面": 6838,
      "关联": 6839,
      "分发": 6840,
      "分辨": 6841,
      "危险": 6842,
      "反映": 6843,
      "和弦": 6844,
      "和更": 6845,
      "哲学": 6846,
      "在其": 6847,
      "将被": 6848,
      "尊重": 6849,
      "布局": 6850,
      "并选择": 6851,
      "应急": 6852,
      "得分": 6853,
      "微调": 6854,
      "性质": 6855,
      "我所": 6856,
      "我之前": 6857,
      "拒绝": 6858,
      "指针": 6859,
      "捕获": 6860,
      "授予": 6861,
      "有时": 6862,
      "有几个": 6863,
      "来创建": 6864,
      "来完成": 6865,
      "段落": 6866,
      "球场": 6867,
      "的吗": 6868,
      "的其他": 6869,
      "的技术": 6870,
      "的输入": 6871,
      "的访问": 6872,
      "的任务": 6873,
      "的输出": 6874,
      "的内存": 6875,
      "目的是": 6876,
      "磁盘": 6877,
      "礼物": 6878,
      "离职": 6879,
      "粘贴": 6880,
      "英寸": 6881,
      "论点": 6882,
      "读者": 6883,
      "调试": 6884,
      "起始": 6885,
      "跟进": 6886,
      "透明": 6887,
      "逼真的": 6888,
      "钢管": 6889,
      "降低": 6890,
      "隐藏": 6891,
      "雇主": 6892,
      "面包": 6893,
      "鼠标": 6894,
      "ature": 6895,
      "replace": 6896,
      "allow": 6897,
      "sequ": 6898,
      "数据和": 6899,
      "可能性": 6900,
      "可能更": 6901,
      "我们应该": 6902,
      "提供各种": 6903,
      "代码中": 6904,
      "river": 6905,
      "通过遵循": 6906,
      "share": 6907,
      "生成AI": 6908,
      "定义的": 6909,
      "Config": 6910,
      "stru": 6911,
      "软件包": 6912,
      "_matrix": 6913,
      "ession": 6914,
      "能够在": 6915,
      "ments": 6916,
      "WebSocket": 6917,
      "resultWorker": 6918,
      "column": 6919,
      "First": 6920,
      "Eng": 6921,
      "详细的": 6922,
      "量子力学": 6923,
      "Doc": 6924,
      "axios": 6925,
      "header": 6926,
      "保存到": 6927,
      "hoto": 6928,
      "MySQL": 6929,
      "过滤器": 6930,
      "EXPE": 6931,
      "唯一标识符": 6932,
      "SVG": 6933,
      "img_": 6934,
      "ived": 6935,
      "终端中": 6936,
      "特别是": 6937,
      "localhost": 6938,
      "相应地": 6939,
      "涵盖了": 6940,
      "eights": 6941,
      "GitHub": 6942,
      "Plan": 6943,
      "正常工作": 6944,
      "941": 6945,
      "PageRank": 6946,
      "GameObject": 6947,
      "XMLHttpRequest": 6948,
      "CFDST": 6949,
      "TEST": 6950,
      "Behance": 6951,
      "window": 6952,
      "KEY": 6953,
      "仪表板": 6954,
      "分辨率": 6955,
      "EXPECT": 6956,
      "*)(": 6957,
      "<=": 6958,
      ">=": 6959,
      "Bus": 6960,
      "Effect": 6961,
      "Gro": 6962,
      "HA": 6963,
      "MB": 6964,
      "MUT": 6965,
      "MTurk": 6966,
      "PCA": 6967,
      "Sl": 6968,
      "]:": 6969,
      "_path": 6970,
      "_socket": 6971,
      "`-": 6972,
      "ade": 6973,
      "cul": 6974,
      "cstring": 6975,
      "close": 6976,
      "font": 6977,
      "mime": 6978,
      "method": 6979,
      "sy": 6980,
      "save": 6981,
      "sensor": 6982,
      "virtual": 6983,
      "you": 6984,
      "一行": 6985,
      "两种": 6986,
      "以适应": 6987,
      "你应该": 6988,
      "偏见": 6989,
      "做些": 6990,
      "分隔": 6991,
      "制动": 6992,
      "可供": 6993,
      "名词": 6994,
      "听到": 6995,
      "和有": 6996,
      "和管理": 6997,
      "在C": 6998,
      "地理": 6999,
      "外观": 7000,
      "它在": 7001,
      "将使用": 7002,
      "就可以": 7003,
      "工资": 7004,
      "并与": 7005,
      "并以": 7006,
      "并增加": 7007,
      "强制": 7008,
      "愿意": 7009,
      "我如何": 7010,
      "战役": 7011,
      "战略": 7012,
      "扇门": 7013,
      "手册": 7014,
      "接近": 7015,
      "放在": 7016,
      "教师": 7017,
      "文献": 7018,
      "文稿": 7019,
      "时器": 7020,
      "最新的": 7021,
      "有机会": 7022,
      "有很多": 7023,
      "有几种": 7024,
      "来帮助": 7025,
      "来存储": 7026,
      "枚举": 7027,
      "此致": 7028,
      "水线": 7029,
      "流水线": 7030,
      "激活": 7031,
      "熟练": 7032,
      "的函数": 7033,
      "的功能": 7034,
      "的权限": 7035,
      "的数量": 7036,
      "种族": 7037,
      "等等": 7038,
      "篇文章": 7039,
      "翻牌圈": 7040,
      "自由": 7041,
      "舒适": 7042,
      "药物": 7043,
      "补充": 7044,
      "询问": 7045,
      "转向": 7046,
      "这使": 7047,
      "这对于": 7048,
      "这有助于": 7049,
      "造成": 7050,
      "邮箱": 7051,
      "重视": 7052,
      "队列": 7053,
      "阴影": 7054,
      "麦克": 7055,
      "）、": 7056,
      "：`": 7057,
      "可以从": 7058,
      "可以将": 7059,
      "ord": 7060,
      "数据科学": 7061,
      "可能对": 7062,
      "我们已经": 7063,
      "提供商": 7064,
      "ics": 7065,
      "方法将": 7066,
      "中的任何": 7067,
      "():": 7068,
      "这些只是": 7069,
      "工作者": 7070,
      "工作场所": 7071,
      "igh": 7072,
      "complet": 7073,
      "trpc": 7074,
      "ifier": 7075,
      "shadow": 7076,
      "rome": 7077,
      "测试和": 7078,
      "以及如何": 7079,
      "因为它们": 7080,
      "enda": 7081,
      "请求的": 7082,
      "props": 7083,
      "provider": 7084,
      "proFTP": 7085,
      "返回一个": 7086,
      "回答问题": 7087,
      "artic": 7088,
      "add_epi32": 7089,
      "Ans": 7090,
      "OpenAI训练的": 7091,
      "_score": 7092,
      "ATA": 7093,
      "render": 7094,
      "集成到": 7095,
      "Uni": 7096,
      "可用性": 7097,
      "TypeScript": 7098,
      "循环遍历": 7099,
      "Forms": 7100,
      "集合中": 7101,
      "依赖于": 7102,
      "sender": 7103,
      "优先考虑": 7104,
      "gov": 7105,
      "_mm_add_epi32": 7106,
      "package": 7107,
      "演示文稿": 7108,
      "Ardu": 7109,
      "le_count": 7110,
      "Dockerfile": 7111,
      "parameter": 7112,
      "构造函数": 7113,
      "这里有一些": 7114,
      "2021年": 7115,
      "kublr": 7116,
      "更快地": 7117,
      "拿到四条的概率": 7118,
      "供应商": 7119,
      "generate": 7120,
      "Coralogix": 7121,
      "Elasticsearch": 7122,
      "YOUR_": 7123,
      "THRE": 7124,
      "self": 7125,
      "离职率": 7126,
      "制动距离": 7127,
      ")。": 7128,
      "75": 7129,
      "8s": 7130,
      "Alice": 7131,
      "Bat": 7132,
      "FF": 7133,
      "Ge": 7134,
      "Hist": 7135,
      "LA": 7136,
      "MM": 7137,
      "NE": 7138,
      "NU": 7139,
      "Not": 7140,
      "Off": 7141,
      "Photo": 7142,
      "Sales": 7143,
      "Tri": 7144,
      "Win": 7145,
      "YPE": 7146,
      "\\/": 7147,
      "_A": 7148,
      "ban": 7149,
      "fac": 7150,
      "flow": 7151,
      "gu": 7152,
      "ll": 7153,
      "mp": 7154,
      "ms": 7155,
      "mon": 7156,
      "p1": 7157,
      "png": 7158,
      "qub": 7159,
      "sn": 7160,
      "tle": 7161,
      "wift": 7162,
      "yout": 7163,
      "~/": 7164,
      "、`": 7165,
      "。\")": 7166,
      "上帝": 7167,
      "下降": 7168,
      "为其": 7169,
      "事实": 7170,
      "以前": 7171,
      "以确定": 7172,
      "以提高": 7173,
      "以获得": 7174,
      "何时": 7175,
      "你们": 7176,
      "保密": 7177,
      "内核": 7178,
      "再生": 7179,
      "写和": 7180,
      "切换": 7181,
      "前往": 7182,
      "劳动力": 7183,
      "协同": 7184,
      "可定制": 7185,
      "后果": 7186,
      "和组织": 7187,
      "大约": 7188,
      "它是否": 7189,
      "官方": 7190,
      "引导": 7191,
      "律师": 7192,
      "性别": 7193,
      "总体": 7194,
      "成年人": 7195,
      "我应该": 7196,
      "推文": 7197,
      "提到": 7198,
      "政治": 7199,
      "曲线": 7200,
      "服装": 7201,
      "此方法": 7202,
      "求职": 7203,
      "深刻": 7204,
      "演讲": 7205,
      "球员": 7206,
      "的数字": 7207,
      "的经验": 7208,
      "的行为": 7209,
      "的地方": 7210,
      "监测": 7211,
      "直观": 7212,
      "相对": 7213,
      "眼部": 7214,
      "禁用": 7215,
      "空白": 7216,
      "突出": 7217,
      "粉丝": 7218,
      "红色": 7219,
      "给你": 7220,
      "而且": 7221,
      "良好的": 7222,
      "请用": 7223,
      "转化": 7224,
      "边的": 7225,
      "这两个": 7226,
      "远程": 7227,
      "逐步": 7228,
      "那样": 7229,
      "都在": 7230,
      "量的": 7231,
      "金属": 7232,
      "阻止": 7233,
      "集中": 7234,
      "inci": 7235,
      "attrib": 7236,
      "stop": 7237,
      "als": 7238,
      "sec": 7239,
      "可能无法": 7240,
      "exit": 7241,
      "apt": 7242,
      "uby": 7243,
      "这些步骤": 7244,
      "ed_": 7245,
      "工作流程": 7246,
      "示例代码": 7247,
      "AI系统": 7248,
      "peg": 7249,
      "输入序列": 7250,
      "Install": 7251,
      "以下是如何在": 7252,
      "目标是": 7253,
      "是否有任何": 7254,
      "测试用例": 7255,
      "实现的": 7256,
      "软件开发": 7257,
      "存储库": 7258,
      "更新后的": 7259,
      "设计师": 7260,
      "bero": 7261,
      "我们的团队": 7262,
      "版本号": 7263,
      "日期和时间": 7264,
      "电子表格": 7265,
      "这里有一个": 7266,
      "ipher": 7267,
      "您需要使用": 7268,
      "结构体": 7269,
      "keras": 7270,
      "Props": 7271,
      "ights": 7272,
      "准确和": 7273,
      "Enter": 7274,
      "grid": 7275,
      "255": 7276,
      "价值观": 7277,
      "board": 7278,
      "机器学习算法": 7279,
      "created": 7280,
      "情感分析": 7281,
      "submit": 7282,
      "EXT": 7283,
      "move_": 7284,
      "Print": 7285,
      "frac": 7286,
      "timestamp": 7287,
      "SOP": 7288,
      "新闻稿": 7289,
      "GET请求": 7290,
      "MAC": 7291,
      "process_": 7292,
      "股票代码": 7293,
      "media": 7294,
      "在室内": 7295,
      "BIM": 7296,
      "pository": 7297,
      "做任何事情": 7298,
      "液体处理": 7299,
      "library": 7300,
      "Head": 7301,
      "Gerber": 7302,
      "CFDST柱": 7303,
      "Arduino": 7304,
      "youtube": 7305,
      "!=": 7306,
      "\"<": 7307,
      "$，": 7308,
      "89": 7309,
      "Aub": 7310,
      "Cafe": 7311,
      "EE": 7312,
      "From": 7313,
      "Lay": 7314,
      "LET": 7315,
      "No": 7316,
      "None": 7317,
      "OO": 7318,
      "Push": 7319,
      "Rust": 7320,
      "Session": 7321,
      "_T": 7322,
      "cloud": 7323,
      "det": 7324,
      "hx": 7325,
      "ls": 7326,
      "nel": 7327,
      "pass": 7328,
      "press": 7329,
      "rgb": 7330,
      "sl": 7331,
      "score": 7332,
      "wpt": 7333,
      "write": 7334,
      "zone": 7335,
      "。（": 7336,
      "一张": 7337,
      "上进行": 7338,
      "两者": 7339,
      "中找到": 7340,
      "主观": 7341,
      "之旅": 7342,
      "交叉": 7343,
      "以其": 7344,
      "保健": 7345,
      "做什么": 7346,
      "减肥": 7347,
      "利润": 7348,
      "印刷": 7349,
      "卸载": 7350,
      "发挥": 7351,
      "受益": 7352,
      "句话": 7353,
      "可重": 7354,
      "和更新": 7355,
      "咖啡": 7356,
      "在本": 7357,
      "坐在": 7358,
      "复合": 7359,
      "大纲": 7360,
      "女性": 7361,
      "学校": 7362,
      "定价": 7363,
      "定位": 7364,
      "定时器": 7365,
      "实用": 7366,
      "导师": 7367,
      "小红": 7368,
      "嵌入": 7369,
      "年来": 7370,
      "并通过": 7371,
      "并检查": 7372,
      "很好的": 7373,
      "必需": 7374,
      "您想": 7375,
      "意图": 7376,
      "我认为": 7377,
      "所在": 7378,
      "投票": 7379,
      "担忧": 7380,
      "插补": 7381,
      "搭配": 7382,
      "收益": 7383,
      "收藏": 7384,
      "时钟": 7385,
      "更正": 7386,
      "末尾": 7387,
      "标头": 7388,
      "正如": 7389,
      "此命令": 7390,
      "母鸡": 7391,
      "每种": 7392,
      "混乱": 7393,
      "清理": 7394,
      "澄清": 7395,
      "物质": 7396,
      "的系统": 7397,
      "的团队": 7398,
      "的情况": 7399,
      "的平台": 7400,
      "的领域": 7401,
      "的解决方案": 7402,
      "的挑战": 7403,
      "的背景": 7404,
      "的见解": 7405,
      "程度": 7406,
      "空终止": 7407,
      "纠缠": 7408,
      "线条": 7409,
      "继承": 7410,
      "能否": 7411,
      "要将": 7412,
      "规定": 7413,
      "视为": 7414,
      "角度": 7415,
      "警告": 7416,
      "论坛": 7417,
      "该项目": 7418,
      "说话": 7419,
      "超越": 7420,
      "车辆": 7421,
      "追求": 7422,
      "道路": 7423,
      "金额": 7424,
      "领先": 7425,
      "频道": 7426,
      "骑手": 7427,
      "ere": 7428,
      "erence": 7429,
      "使用这些": 7430,
      "rece": 7431,
      "可以根据": 7432,
      "eng": 7433,
      "ency": 7434,
      "encoder": 7435,
      "orig": 7436,
      "itter": 7437,
      "amol": 7438,
      "可能存在": 7439,
      "asset": 7440,
      "copy": 7441,
      "thresh": 7442,
      "创建的": 7443,
      "您的业务": 7444,
      "convert": 7445,
      "expect": 7446,
      "agenda": 7447,
      "他们对": 7448,
      "unk": 7449,
      "方法可以": 7450,
      "access": 7451,
      "通过将": 7452,
      "其他人": 7453,
      "用户可以": 7454,
      "进行操作": 7455,
      "这些问题": 7456,
      "nection": 7457,
      "它们在": 7458,
      "确保您的": 7459,
      "Char": 7460,
      "是否已": 7461,
      "包含一个": 7462,
      "安全性": 7463,
      "搜索结果": 7464,
      "研究人员": 7465,
      "property": 7466,
      "new_": 7467,
      "变量的值": 7468,
      "queue": 7469,
      "izer": 7470,
      "表示为": 7471,
      "Stream": 7472,
      "printf": 7473,
      "学生在": 7474,
      "涉及到": 7475,
      "训练模型": 7476,
      "Application": 7477,
      "ithub": 7478,
      "最后一个": 7479,
      "mouse": 7480,
      "outputs": 7481,
      "_sub": 7482,
      "ReactJS": 7483,
      "合作伙伴": 7484,
      "itemprop": 7485,
      "按钮时": 7486,
      "Shell": 7487,
      "focus": 7488,
      "irect": 7489,
      "uster": 7490,
      "buffer": 7491,
      "Mouse": 7492,
      "Clari": 7493,
      "喜欢的": 7494,
      "单元测试": 7495,
      "语法和": 7496,
      "rypt": 7497,
      "Acamol": 7498,
      "高效的": 7499,
      "易于使用": 7500,
      "还有其他": 7501,
      "ategy": 7502,
      "front": 7503,
      "control": 7504,
      "uint8": 7505,
      "VRX": 7506,
      "医疗保健": 7507,
      "FilePath": 7508,
      "更好地了解": 7509,
      "单独的": 7510,
      "坐标系": 7511,
      "pgvector": 7512,
      "vision": 7513,
      "transform": 7514,
      "foreach": 7515,
      "被认为是": 7516,
      "Transformer": 7517,
      "f5f5": 7518,
      "启发式算法": 7519,
      "14k实心金珠宝": 7520,
      "Cyber": 7521,
      "mkdir": 7522,
      "您是正确的": 7523,
      "Markdown": 7524,
      "pandas": 7525,
      "amera": 7526,
      "Document": 7527,
      "Group": 7528,
      "做些什么": 7529,
      "Photoshop": 7530,
      "WinForms": 7531,
      "Auburn": 7532,
      "空终止符": 7533,
      ")),": 7534,
      "09": 7535,
      "2个": 7536,
      "300": 7537,
      "3000": 7538,
      "Bo": 7539,
      "Cur": 7540,
      "EQ": 7541,
      "Flo": 7542,
      "IG": 7543,
      "Li": 7544,
      "Len": 7545,
      "Of": 7546,
      "Py": 7547,
      "RFC": 7548,
      "TM": 7549,
      "Tem": 7550,
      "\\.": 7551,
      "_type": 7552,
      "_hand": 7553,
      "_plan": 7554,
      "`[": 7555,
      "`、`": 7556,
      "ares": 7557,
      "bal": 7558,
      "d_": 7559,
      "dd": 7560,
      "fema": 7561,
      "github": 7562,
      "ius": 7563,
      "p2": 7564,
      "ruby": 7565,
      "squ": 7566,
      "ui": 7567,
      "v1": 7568,
      "ved": 7569,
      "不应该": 7570,
      "亲爱的": 7571,
      "仅在": 7572,
      "以进行": 7573,
      "使命": 7574,
      "停留": 7575,
      "全文": 7576,
      "凝土": 7577,
      "分离": 7578,
      "则可以使用": 7579,
      "初学": 7580,
      "副本": 7581,
      "助手": 7582,
      "反射": 7583,
      "后面": 7584,
      "听起来": 7585,
      "和理解": 7586,
      "和视频": 7587,
      "哪种": 7588,
      "啤酒": 7589,
      "圣诞": 7590,
      "它应该": 7591,
      "宣传": 7592,
      "将为": 7593,
      "就会": 7594,
      "居民": 7595,
      "并向": 7596,
      "并确定": 7597,
      "库的": 7598,
      "引入": 7599,
      "当在": 7600,
      "形成": 7601,
      "您可能": 7602,
      "感激": 7603,
      "我对": 7604,
      "我能": 7605,
      "我是一个": 7606,
      "或应用程序": 7607,
      "打造": 7608,
      "探讨": 7609,
      "推理": 7610,
      "昂贵": 7611,
      "更复杂的": 7612,
      "有一些": 7613,
      "混淆": 7614,
      "混凝土": 7615,
      "班牙": 7616,
      "用餐": 7617,
      "的AI": 7618,
      "的项目": 7619,
      "的格式": 7620,
      "的标题": 7621,
      "的性能": 7622,
      "的决策": 7623,
      "的上下文": 7624,
      "的历史": 7625,
      "的指导": 7626,
      "的东西": 7627,
      "的拓扑": 7628,
      "离子": 7629,
      "筛选": 7630,
      "签名": 7631,
      "精力": 7632,
      "紧张": 7633,
      "细纹": 7634,
      "群体": 7635,
      "花费": 7636,
      "融入": 7637,
      "西班牙": 7638,
      "观看": 7639,
      "解密": 7640,
      "误解": 7641,
      "谈论": 7642,
      "过度": 7643,
      "连贯": 7644,
      "遭遇": 7645,
      "邀请": 7646,
      "部件": 7647,
      "钩子": 7648,
      "防御": 7649,
      "阻尼": 7650,
      "预处理": 7651,
      "：\"": 7652,
      "onMove": 7653,
      "使用不同的": 7654,
      "可以同时": 7655,
      "ories": 7656,
      "lean": 7657,
      "lete": 7658,
      "align": 7659,
      "annot": 7660,
      "ctx": 7661,
      "数据分析": 7662,
      "lope": 7663,
      "他们在": 7664,
      "htmx": 7665,
      "如何为": 7666,
      "is_": 7667,
      "进行的": 7668,
      "进行调整": 7669,
      "函数和": 7670,
      "edu": 7671,
      "ulink": 7672,
      "tool": 7673,
      "时间表": 7674,
      "技术转移": 7675,
      "系统中": 7676,
      "选择一个": 7677,
      "生成文本": 7678,
      "以下是您可以": 7679,
      "解决这个问题": 7680,
      "创建一个名为": 7681,
      "127": 7682,
      "相关性": 7683,
      "prim": 7684,
      "功能和": 7685,
      "如果您正在": 7686,
      "aaS": 7687,
      "otal": 7688,
      "并将它们": 7689,
      "中使用的": 7690,
      "println": 7691,
      "通常用于": 7692,
      "设备和": 7693,
      "许多其他": 7694,
      "这样做": 7695,
      "Program": 7696,
      "员工人数": 7697,
      "页面上": 7698,
      "address": 7699,
      "Command": 7700,
      "是一名": 7701,
      "是一款": 7702,
      "arg1": 7703,
      "arg2": 7704,
      "Exec": 7705,
      "widget": 7706,
      "替换为您的": 7707,
      "接受一个": 7708,
      "ools": 7709,
      "byte": 7710,
      "VALUE": 7711,
      "max_": 7712,
      "your_": 7713,
      "IPX": 7714,
      "传统的": 7715,
      "营销活动": 7716,
      "iddle": 7717,
      "ggcy": 7718,
      "prefix": 7719,
      "写一封": 7720,
      "最佳实践": 7721,
      "的平均预订": 7722,
      "预订总数": 7723,
      "Listener": 7724,
      "atsApp": 7725,
      "626": 7726,
      "Author": 7727,
      "ible": 7728,
      "Handler": 7729,
      "对应于": 7730,
      "WhatsApp": 7731,
      "重定向到": 7732,
      "Simulink": 7733,
      "年轻人": 7734,
      "蓝牙5": 7735,
      "Width": 7736,
      "namespace": 7737,
      "sequence": 7738,
      "EXPECT_": 7739,
      "OpenAI训练的大型语言模型": 7740,
      "History": 7741,
      "Salesforce": 7742,
      "眼部区域": 7743,
      "LETE": 7744,
      "小红母鸡": 7745,
      "squares": 7746,
      "annotations": 7747,
      "ggcyto": 7748,
      "\".": 7749,
      "\"`": 7750,
      "38": 7751,
      "58": 7752,
      "600": 7753,
      ":\\": 7754,
      "<|": 7755,
      "Act": 7756,
      "Blo": 7757,
      "Boot": 7758,
      "BEV": 7759,
      "CS": 7760,
      "CAT": 7761,
      "DA": 7762,
      "Django": 7763,
      "Eye": 7764,
      "Goroutine": 7765,
      "IV": 7766,
      "LCD": 7767,
      "Mesh": 7768,
      "NC": 7769,
      "Nu": 7770,
      "Opt": 7771,
      "Rel": 7772,
      "Son": 7773,
      "Scr": 7774,
      "Svel": 7775,
      "TFS": 7776,
      "_con": 7777,
      "_for": 7778,
      "br": 7779,
      "bit": 7780,
      "brow": 7781,
      "cast": 7782,
      "ccess": 7783,
      "g0": 7784,
      "gW": 7785,
      "gen": 7786,
      "mic": 7787,
      "mem": 7788,
      "mpeg": 7789,
      "pare": 7790,
      "rate": 7791,
      "ract": 7792,
      "runt": 7793,
      "sor": 7794,
      "tes": 7795,
      "tag": 7796,
      "|>": 7797,
      "}>": 7798,
      "不使用": 7799,
      "与他人": 7800,
      "个月": 7801,
      "中断": 7802,
      "中有": 7803,
      "主机": 7804,
      "主管": 7805,
      "主页": 7806,
      "之外": 7807,
      "也可能": 7808,
      "以色": 7809,
      "但在": 7810,
      "你有什么": 7811,
      "保证": 7812,
      "假期": 7813,
      "兄弟": 7814,
      "光线": 7815,
      "分为": 7816,
      "分解": 7817,
      "则将": 7818,
      "创始": 7819,
      "加拿": 7820,
      "包容": 7821,
      "化和": 7822,
      "卢比": 7823,
      "发起": 7824,
      "取代": 7825,
      "可再生": 7826,
      "同一": 7827,
      "吸收": 7828,
      "和对": 7829,
      "和执行": 7830,
      "哈希": 7831,
      "商品": 7832,
      "四个": 7833,
      "域名": 7834,
      "培养": 7835,
      "大脑": 7836,
      "太多": 7837,
      "奇怪": 7838,
      "学术": 7839,
      "小部件": 7840,
      "尺寸": 7841,
      "尾酒": 7842,
      "已被": 7843,
      "年期": 7844,
      "并根据": 7845,
      "忘记": 7846,
      "您对": 7847,
      "您是否": 7848,
      "情绪": 7849,
      "我独自": 7850,
      "战斗": 7851,
      "抽象": 7852,
      "接待": 7853,
      "文字": 7854,
      "斜杠": 7855,
      "施加": 7856,
      "时代": 7857,
      "更年期": 7858,
      "有人": 7859,
      "条目": 7860,
      "某个": 7861,
      "此函数": 7862,
      "治疗": 7863,
      "清楚": 7864,
      "状况": 7865,
      "球的": 7866,
      "生态": 7867,
      "电路": 7868,
      "百分": 7869,
      "的提示": 7870,
      "的单词": 7871,
      "的角色": 7872,
      "的组合": 7873,
      "的详细信息": 7874,
      "的风险": 7875,
      "的确切": 7876,
      "第一次": 7877,
      "等平台": 7878,
      "纳入": 7879,
      "综合": 7880,
      "缩放": 7881,
      "职责": 7882,
      "节点的": 7883,
      "蓝色": 7884,
      "装饰": 7885,
      "订购": 7886,
      "认证": 7887,
      "让您": 7888,
      "记得": 7889,
      "该脚本": 7890,
      "语气": 7891,
      "请问": 7892,
      "走着": 7893,
      "这可以通过": 7894,
      "造型": 7895,
      "部门": 7896,
      "里程": 7897,
      "重构": 7898,
      "问候": 7899,
      "鸡尾酒": 7900,
      "））": 7901,
      "ero": 7902,
      "info": 7903,
      "可以为": 7904,
      "sto": 7905,
      "一个人": 7906,
      "ense": 7907,
      "-->": 7908,
      "我们会": 7909,
      "我们首先": 7910,
      "lo_epi16": 7911,
      "如果我": 7912,
      "如果需要": 7913,
      "如果您的": 7914,
      "chmod": 7915,
      "他们需要": 7916,
      "中的文件": 7917,
      "通过提供": 7918,
      "edia": 7919,
      "poss": 7920,
      "确保在": 7921,
      "确保您": 7922,
      "plumber": 7923,
      "工具的": 7924,
      "---------": 7925,
      "------------": 7926,
      "安全地": 7927,
      "产品或": 7928,
      "显示器": 7929,
      "安装了": 7930,
      "完成后": 7931,
      "表示法": 7932,
      "Style": 7933,
      "环境变量": 7934,
      "abled": 7935,
      "users": 7936,
      "ffmpeg": 7937,
      "这里是": 7938,
      "设备上": 7939,
      "专业人士": 7940,
      "pytest": 7941,
      "useState": 7942,
      "Apple": 7943,
      "define": 7944,
      "_table": 7945,
      "Tele": 7946,
      "voice": 7947,
      "DoS": 7948,
      "简单的语言": 7949,
      "可用于创建": 7950,
      "实际的": 7951,
      "健康和": 7952,
      "检测和": 7953,
      "maxlength": 7954,
      "MyClass": 7955,
      "ORD": 7956,
      "感谢您的": 7957,
      "minutes": 7958,
      "HEV": 7959,
      "唯一的": 7960,
      "类似于": 7961,
      "CSS和": 7962,
      "All": 7963,
      "随着时间的": 7964,
      "之一是": 7965,
      "可靠性": 7966,
      "POST请求": 7967,
      "统计学": 7968,
      "canvas": 7969,
      "0000000000000000": 7970,
      "DELETE": 7971,
      "year": 7972,
      "可见性": 7973,
      "_cb": 7974,
      "ngModel": 7975,
      "明确的": 7976,
      "上传到": 7977,
      "过去30天": 7978,
      "02d": 7979,
      "push_back_to_": 7980,
      ")]=\"": 7981,
      "hours": 7982,
      "\"\"\"": 7983,
      "center": 7984,
      "在室外": 7985,
      "Tibero": 7986,
      "深度学习": 7987,
      "先进的": 7988,
      "网格组件": 7989,
      "平面图": 7990,
      "technolog": 7991,
      "CSV文件": 7992,
      "间隔年": 7993,
      "embedding_matrix": 7994,
      "电视剧": 7995,
      "Function": 7996,
      "您提供的模式": 7997,
      "Store": 7998,
      "domain": 7999,
      "收藏品": 8000,
      "Length": 8001,
      "用餐区": 8002,
      "的平均预订数": 8003,
      "Bloom": 8004,
      "NuGet": 8005,
      "Relic": 8006,
      "Svelte": 8007,
      "runtime": 8008,
      "以色列": 8009,
      "可再生能源": 8010,
      "我独自走着": 8011,
      "push_back_to_elves": 8012,
      "\"{": 8013,
      ".\"": 8014,
      "./": 8015,
      "1到": 8016,
      "3x": 8017,
      "67": 8018,
      "6点": 8019,
      "Ali": 8020,
      "BA": 8021,
      "CRE": 8022,
      "Da": 8023,
      "MR": 8024,
      "Method": 8025,
      "OK": 8026,
      "Pre": 8027,
      "Pool": 8028,
      "Sub": 8029,
      "Send": 8030,
      "Source": 8031,
      "]`": 8032,
      "_i": 8033,
      "_re": 8034,
      "_KEY": 8035,
      "`$": 8036,
      "az": 8037,
      "bw": 8038,
      "ben": 8039,
      "call": 8040,
      "elev": 8041,
      "fn": 8042,
      "factor": 8043,
      "gpt": 8044,
      "h2": 8045,
      "ian": 8046,
      "k8s": 8047,
      "lang": 8048,
      "pkg": 8049,
      "{{": 8050,
      "。\",": 8051,
      "一位": 8052,
      "不在": 8053,
      "不太": 8054,
      "不足": 8055,
      "严格": 8056,
      "为1": 8057,
      "付款": 8058,
      "以在": 8059,
      "你正在": 8060,
      "假装": 8061,
      "停用": 8062,
      "克尔": 8063,
      "其在": 8064,
      "兼职": 8065,
      "减去": 8066,
      "出来": 8067,
      "出版": 8068,
      "分段": 8069,
      "利亚": 8070,
      "到了": 8071,
      "剩余": 8072,
      "包装": 8073,
      "印度": 8074,
      "即时": 8075,
      "反驳": 8076,
      "发动机": 8077,
      "变换": 8078,
      "可行": 8079,
      "可扩展": 8080,
      "合规": 8081,
      "同意": 8082,
      "后台": 8083,
      "后的代码": 8084,
      "和C": 8085,
      "团体": 8086,
      "在于": 8087,
      "在这": 8088,
      "在游戏": 8089,
      "在这里": 8090,
      "在多个": 8091,
      "基酒": 8092,
      "太好了": 8093,
      "失去": 8094,
      "子集": 8095,
      "它允许您": 8096,
      "宝贵": 8097,
      "对其": 8098,
      "将有助于": 8099,
      "屋顶": 8100,
      "峰值": 8101,
      "年12月": 8102,
      "彼此": 8103,
      "成果": 8104,
      "收件": 8105,
      "方差": 8106,
      "早上": 8107,
      "时光": 8108,
      "明智": 8109,
      "是关于": 8110,
      "曾经": 8111,
      "本质": 8112,
      "机场": 8113,
      "桌子": 8114,
      "流畅": 8115,
      "激励": 8116,
      "灵感": 8117,
      "焦点": 8118,
      "牌组": 8119,
      "电梯": 8120,
      "的主": 8121,
      "的小": 8122,
      "的帮助": 8123,
      "的命令": 8124,
      "的研究": 8125,
      "的组件": 8126,
      "的链接": 8127,
      "的乘积": 8128,
      "皮肤": 8129,
      "福祉": 8130,
      "而是": 8131,
      "联盟": 8132,
      "能量": 8133,
      "苹果": 8134,
      "要点": 8135,
      "规范": 8136,
      "觉得": 8137,
      "触摸": 8138,
      "认识": 8139,
      "诠释": 8140,
      "谨慎": 8141,
      "赢得": 8142,
      "迈克尔": 8143,
      "这项": 8144,
      "追踪": 8145,
      "逼真": 8146,
      "那个": 8147,
      "重大": 8148,
      "重试": 8149,
      "金融": 8150,
      "附近": 8151,
      "陷阱": 8152,
      "饮料": 8153,
      "黄色": 8154,
      "investor": 8155,
      "red": 8156,
      "ors": 8157,
      "led": 8158,
      "lex": 8159,
      "ane": 8160,
      "ities": 8161,
      "util": 8162,
      "提供了一个": 8163,
      "enter": 8164,
      "imer": 8165,
      "如果输入": 8166,
      "用户在": 8167,
      "用户界面": 8168,
      "进行比较": 8169,
      "这个错误": 8170,
      "这些服务": 8171,
      "用于在": 8172,
      "用于构建": 8173,
      "时间内": 8174,
      "客户提供": 8175,
      "click": 8176,
      "设置了": 8177,
      "API的": 8178,
      "oment": 8179,
      "重要性": 8180,
      "Inst": 8181,
      "注意机制": 8182,
      "团队合作": 8183,
      "管理员": 8184,
      "database": 8185,
      "ectl": 8186,
      "”，，": 8187,
      "数字的": 8188,
      "影响力": 8189,
      "字符串的": 8190,
      "个人和": 8191
    },
    "merges": [
      [
        "o",
        "n"
      ],
      [
        "e",
        "r"
      ],
      [
        "i",
        "n"
      ],
      [
        "`",
        "`"
      ],
      [
        "a",
        "t"
      ],
      [
        "使",
        "用"
      ],
      [
        "r",
        "e"
      ],
      [
        "可",
        "以"
      ],
      [
        "s",
        "t"
      ],
      [
        "一",
        "个"
      ],
      [
        "e",
        "n"
      ],
      [
        "o",
        "r"
      ],
      [
        "l",
        "e"
      ],
      [
        "-",
        "-"
      ],
      [
        "``",
        "`"
      ],
      [
        "a",
        "l"
      ],
      [
        "a",
        "n"
      ],
      [
        "i",
        "t"
      ],
      [
        "s",
        "e"
      ],
      [
        "a",
        "r"
      ],
      [
        "c",
        "t"
      ],
      [
        "数",
        "据"
      ],
      [
        "a",
        "m"
      ],
      [
        "r",
        "o"
      ],
      [
        ")",
        ";"
      ],
      [
        "e",
        "s"
      ],
      [
        "u",
        "t"
      ],
      [
        "i",
        "on"
      ],
      [
        "可",
        "能"
      ],
      [
        "我",
        "们"
      ],
      [
        "提",
        "供"
      ],
      [
        "a",
        "s"
      ],
      [
        "0",
        "0"
      ],
      [
        "e",
        "t"
      ],
      [
        "c",
        "o"
      ],
      [
        "t",
        "h"
      ],
      [
        "i",
        "c"
      ],
      [
        "en",
        "t"
      ],
      [
        "创",
        "建"
      ],
      [
        "l",
        "o"
      ],
      [
        "i",
        "m"
      ],
      [
        "d",
        "e"
      ],
      [
        "需",
        "要"
      ],
      [
        "您",
        "的"
      ],
      [
        "u",
        "r"
      ],
      [
        "in",
        "g"
      ],
      [
        "/",
        "/"
      ],
      [
        "如",
        "果"
      ],
      [
        "c",
        "on"
      ],
      [
        "i",
        "d"
      ],
      [
        "以",
        "下"
      ],
      [
        "c",
        "h"
      ],
      [
        "代",
        "码"
      ],
      [
        "at",
        "e"
      ],
      [
        "e",
        "l"
      ],
      [
        "e",
        "x"
      ],
      [
        "a",
        "g"
      ],
      [
        "您",
        "可以"
      ],
      [
        "文",
        "件"
      ],
      [
        "他",
        "们"
      ],
      [
        "程",
        "序"
      ],
      [
        "r",
        "i"
      ],
      [
        "u",
        "n"
      ],
      [
        "问",
        "题"
      ],
      [
        "方",
        "法"
      ],
      [
        "服",
        "务"
      ],
      [
        "a",
        "c"
      ],
      [
        "信",
        "息"
      ],
      [
        "中",
        "的"
      ],
      [
        "a",
        "p"
      ],
      [
        "通",
        "过"
      ],
      [
        "in",
        "t"
      ],
      [
        "例",
        "如"
      ],
      [
        "其",
        "他"
      ],
      [
        "h",
        "t"
      ],
      [
        "应",
        "用"
      ],
      [
        "(",
        ")"
      ],
      [
        "包",
        "括"
      ],
      [
        "如",
        "何"
      ],
      [
        "i",
        "s"
      ],
      [
        "用",
        "户"
      ],
      [
        "帮",
        "助"
      ],
      [
        "进",
        "行"
      ],
      [
        "a",
        "d"
      ],
      [
        "函",
        "数"
      ],
      [
        "am",
        "e"
      ],
      [
        "--",
        "--"
      ],
      [
        "u",
        "b"
      ],
      [
        "什",
        "么"
      ],
      [
        "这",
        "个"
      ],
      [
        "u",
        "m"
      ],
      [
        "这",
        "些"
      ],
      [
        "p",
        "t"
      ],
      [
        "用",
        "于"
      ],
      [
        "e",
        "d"
      ],
      [
        "u",
        "e"
      ],
      [
        "u",
        "s"
      ],
      [
        "re",
        "s"
      ],
      [
        "工",
        "作"
      ],
      [
        "是",
        "一个"
      ],
      [
        "i",
        "g"
      ],
      [
        "任",
        "何"
      ],
      [
        "u",
        "l"
      ],
      [
        "t",
        "o"
      ],
      [
        "计",
        "算"
      ],
      [
        "i",
        "l"
      ],
      [
        "一",
        "些"
      ],
      [
        "v",
        "e"
      ],
      [
        "示",
        "例"
      ],
      [
        "e",
        "m"
      ],
      [
        "时",
        "间"
      ],
      [
        "o",
        "o"
      ],
      [
        "A",
        "I"
      ],
      [
        "应用",
        "程序"
      ],
      [
        "co",
        "m"
      ],
      [
        "每",
        "个"
      ],
      [
        "客",
        "户"
      ],
      [
        "an",
        "d"
      ],
      [
        "ex",
        "t"
      ],
      [
        "or",
        "t"
      ],
      [
        "=",
        "="
      ],
      [
        "d",
        "i"
      ],
      [
        "<",
        "/"
      ],
      [
        "f",
        "or"
      ],
      [
        "1",
        "0"
      ],
      [
        "t",
        "p"
      ],
      [
        "语",
        "言"
      ],
      [
        "ag",
        "e"
      ],
      [
        "at",
        "a"
      ],
      [
        "技",
        "术"
      ],
      [
        "P",
        "I"
      ],
      [
        "\"",
        ","
      ],
      [
        "作",
        "为"
      ],
      [
        "系",
        "统"
      ],
      [
        "模",
        "型"
      ],
      [
        "t",
        "r"
      ],
      [
        "你",
        "的"
      ],
      [
        "c",
        "l"
      ],
      [
        "所",
        "有"
      ],
      [
        "不",
        "同"
      ],
      [
        "i",
        "f"
      ],
      [
        "p",
        "e"
      ],
      [
        "a",
        "v"
      ],
      [
        "n",
        "e"
      ],
      [
        "p",
        "ort"
      ],
      [
        "R",
        "e"
      ],
      [
        "a",
        "b"
      ],
      [
        "处",
        "理"
      ],
      [
        "设",
        "置"
      ],
      [
        "项",
        "目"
      ],
      [
        "A",
        "PI"
      ],
      [
        "o",
        "m"
      ],
      [
        "选",
        "择"
      ],
      [
        "v",
        "er"
      ],
      [
        "\"",
        ":"
      ],
      [
        "s",
        "h"
      ],
      [
        "它",
        "们"
      ],
      [
        "p",
        "o"
      ],
      [
        "输",
        "入"
      ],
      [
        "at",
        "ion"
      ],
      [
        "p",
        "ut"
      ],
      [
        "确",
        "保"
      ],
      [
        "a",
        "ct"
      ],
      [
        "=",
        "\""
      ],
      [
        "学",
        "习"
      ],
      [
        "重",
        "要"
      ],
      [
        "as",
        "s"
      ],
      [
        "n",
        "ame"
      ],
      [
        "I",
        "n"
      ],
      [
        "d",
        "o"
      ],
      [
        "p",
        "l"
      ],
      [
        "开",
        "发"
      ],
      [
        "生",
        "成"
      ],
      [
        "以下",
        "是"
      ],
      [
        "c",
        "ri"
      ],
      [
        "然",
        "后"
      ],
      [
        "2",
        "0"
      ],
      [
        "o",
        "l"
      ],
      [
        "y",
        "th"
      ],
      [
        "con",
        "st"
      ],
      [
        "网",
        "站"
      ],
      [
        "ht",
        "tp"
      ],
      [
        "yth",
        "on"
      ],
      [
        "我",
        "的"
      ],
      [
        "文",
        "本"
      ],
      [
        "C",
        "h"
      ],
      [
        "cri",
        "pt"
      ],
      [
        "工",
        "具"
      ],
      [
        "一",
        "种"
      ],
      [
        "运",
        "行"
      ],
      [
        "字",
        "符"
      ],
      [
        "目",
        "标"
      ],
      [
        ":",
        "//"
      ],
      [
        "定",
        "义"
      ],
      [
        "ro",
        "m"
      ],
      [
        "f",
        "i"
      ],
      [
        "命",
        "令"
      ],
      [
        "a",
        "y"
      ],
      [
        "添",
        "加"
      ],
      [
        "C",
        "on"
      ],
      [
        "G",
        "P"
      ],
      [
        "特",
        "定"
      ],
      [
        "st",
        "r"
      ],
      [
        "m",
        "a"
      ],
      [
        "是",
        "否"
      ],
      [
        "具",
        "有"
      ],
      [
        "方",
        "式"
      ],
      [
        "解",
        "决"
      ],
      [
        "公",
        "司"
      ],
      [
        "创建",
        "一个"
      ],
      [
        "g",
        "et"
      ],
      [
        "p",
        "en"
      ],
      [
        "没",
        "有"
      ],
      [
        "测",
        "试"
      ],
      [
        "以",
        "及"
      ],
      [
        "(",
        "\""
      ],
      [
        "应",
        "该"
      ],
      [
        "分",
        "析"
      ],
      [
        "执",
        "行"
      ],
      [
        "包",
        "含"
      ],
      [
        "1",
        "2"
      ],
      [
        "访",
        "问"
      ],
      [
        "GP",
        "T"
      ],
      [
        "(",
        "'"
      ],
      [
        "注",
        "意"
      ],
      [
        "团",
        "队"
      ],
      [
        "管",
        "理"
      ],
      [
        "类",
        "型"
      ],
      [
        "内",
        "容"
      ],
      [
        "c",
        "k"
      ],
      [
        "t",
        "e"
      ],
      [
        "j",
        "s"
      ],
      [
        "d",
        "ata"
      ],
      [
        "http",
        "s"
      ],
      [
        "操",
        "作"
      ],
      [
        "l",
        "i"
      ],
      [
        "当",
        "然"
      ],
      [
        "ul",
        "t"
      ],
      [
        "c",
        "e"
      ],
      [
        "im",
        "port"
      ],
      [
        "检",
        "查"
      ],
      [
        "游",
        "戏"
      ],
      [
        "ac",
        "k"
      ],
      [
        "服务",
        "器"
      ],
      [
        "w",
        "or"
      ],
      [
        "实",
        "现"
      ],
      [
        "任",
        "务"
      ],
      [
        "根",
        "据"
      ],
      [
        "ct",
        "ion"
      ],
      [
        "他们",
        "的"
      ],
      [
        "S",
        "S"
      ],
      [
        "对",
        "象"
      ],
      [
        "软",
        "件"
      ],
      [
        "_",
        "m"
      ],
      [
        "S",
        "T"
      ],
      [
        "元",
        "素"
      ],
      [
        "存",
        "储"
      ],
      [
        "情",
        "况"
      ],
      [
        "e",
        "ct"
      ],
      [
        "o",
        "d"
      ],
      [
        "允",
        "许"
      ],
      [
        "因",
        "为"
      ],
      [
        "re",
        "t"
      ],
      [
        "es",
        "s"
      ],
      [
        "更",
        "新"
      ],
      [
        "en",
        "d"
      ],
      [
        "相",
        "关"
      ],
      [
        "设",
        "计"
      ],
      [
        "at",
        "h"
      ],
      [
        "机",
        "器"
      ],
      [
        "e",
        "b"
      ],
      [
        "o",
        "ut"
      ],
      [
        "s",
        "o"
      ],
      [
        "请",
        "求"
      ],
      [
        "网",
        "络"
      ],
      [
        "连",
        "接"
      ],
      [
        "结",
        "果"
      ],
      [
        "ur",
        "n"
      ],
      [
        "P",
        "ython"
      ],
      [
        "----",
        "----"
      ],
      [
        "di",
        "v"
      ],
      [
        "”",
        "，"
      ],
      [
        "图",
        "像"
      ],
      [
        "安",
        "全"
      ],
      [
        "数",
        "字"
      ],
      [
        "新",
        "的"
      ],
      [
        "se",
        "t"
      ],
      [
        "'",
        ","
      ],
      [
        "脚",
        "本"
      ],
      [
        "搜",
        "索"
      ],
      [
        "自",
        "己"
      ],
      [
        "列",
        "表"
      ],
      [
        "影",
        "响"
      ],
      [
        "您可以",
        "使用"
      ],
      [
        "研",
        "究"
      ],
      [
        "能",
        "够"
      ],
      [
        "in",
        "e"
      ],
      [
        "因",
        "此"
      ],
      [
        "字符",
        "串"
      ],
      [
        "了",
        "解"
      ],
      [
        "可以",
        "使用"
      ],
      [
        "h",
        "e"
      ],
      [
        "p",
        "ro"
      ],
      [
        "p",
        "r"
      ],
      [
        "产",
        "品"
      ],
      [
        "功",
        "能"
      ],
      [
        "开",
        "始"
      ],
      [
        "av",
        "a"
      ],
      [
        "u",
        "p"
      ],
      [
        "如果",
        "您"
      ],
      [
        "y",
        "pe"
      ],
      [
        "计",
        "划"
      ],
      [
        "参",
        "数"
      ],
      [
        "解",
        "释"
      ],
      [
        "ne",
        "w"
      ],
      [
        "m",
        "y"
      ],
      [
        "个",
        "人"
      ],
      [
        "可能",
        "会"
      ],
      [
        "'",
        ")"
      ],
      [
        "l",
        "ic"
      ],
      [
        "w",
        "w"
      ],
      [
        "各",
        "种"
      ],
      [
        "正",
        "在"
      ],
      [
        "这",
        "是"
      ],
      [
        "s",
        "er"
      ],
      [
        "变",
        "量"
      ],
      [
        "显",
        "示"
      ],
      [
        "支",
        "持"
      ],
      [
        "b",
        "er"
      ],
      [
        "p",
        "on"
      ],
      [
        "安",
        "装"
      ],
      [
        "找",
        "到"
      ],
      [
        "正",
        "确"
      ],
      [
        "资",
        "源"
      ],
      [
        "不",
        "是"
      ],
      [
        "错",
        "误"
      ],
      [
        "ret",
        "urn"
      ],
      [
        "t",
        "ext"
      ],
      [
        "对",
        "于"
      ],
      [
        "关",
        "键"
      ],
      [
        "关",
        "于"
      ],
      [
        "指",
        "定"
      ],
      [
        "返",
        "回"
      ],
      [
        "im",
        "e"
      ],
      [
        "\"",
        ">"
      ],
      [
        "p",
        "le"
      ],
      [
        "确",
        "定"
      ],
      [
        "a",
        "a"
      ],
      [
        "it",
        "y"
      ],
      [
        "p",
        "er"
      ],
      [
        "q",
        "ue"
      ],
      [
        "完",
        "成"
      ],
      [
        "i",
        "z"
      ],
      [
        "v",
        "al"
      ],
      [
        "j",
        "ect"
      ],
      [
        "其",
        "中"
      ],
      [
        "基",
        "于"
      ],
      [
        "好",
        "的"
      ],
      [
        "可以",
        "帮助"
      ],
      [
        "al",
        "l"
      ],
      [
        "q",
        "u"
      ],
      [
        "表",
        "示"
      ],
      [
        "非",
        "常"
      ],
      [
        "00",
        "00"
      ],
      [
        "发",
        "送"
      ],
      [
        "之",
        "间"
      ],
      [
        "属",
        "性"
      ],
      [
        "Ch",
        "at"
      ],
      [
        "两",
        "个"
      ],
      [
        "2",
        "2"
      ],
      [
        "S",
        "t"
      ],
      [
        "o",
        "t"
      ],
      [
        "(",
        ");"
      ],
      [
        "J",
        "ava"
      ],
      [
        "t",
        "er"
      ],
      [
        "组",
        "件"
      ],
      [
        "获",
        "取"
      ],
      [
        "无",
        "法"
      ],
      [
        "更",
        "多"
      ],
      [
        "不同",
        "的"
      ],
      [
        "理",
        "解"
      ],
      [
        "o",
        "w"
      ],
      [
        "已",
        "经"
      ],
      [
        "平",
        "台"
      ],
      [
        "换",
        "为"
      ],
      [
        "步",
        "骤"
      ],
      [
        "考",
        "虑"
      ],
      [
        "输",
        "出"
      ],
      [
        "你",
        "能"
      ],
      [
        "具",
        "体"
      ],
      [
        "告",
        "诉"
      ],
      [
        "建",
        "议"
      ],
      [
        "有",
        "效"
      ],
      [
        "部",
        "分"
      ],
      [
        ".",
        "."
      ],
      [
        "a",
        "se"
      ],
      [
        "并",
        "将"
      ],
      [
        "活",
        "动"
      ],
      [
        "能",
        "力"
      ],
      [
        "I",
        "D"
      ],
      [
        "u",
        "re"
      ],
      [
        "的",
        "信息"
      ],
      [
        "领",
        "域"
      ],
      [
        "o",
        "ur"
      ],
      [
        "中",
        "使用"
      ],
      [
        "名",
        "称"
      ],
      [
        "的",
        "是"
      ],
      [
        "cl",
        "ass"
      ],
      [
        "消",
        "息"
      ],
      [
        "k",
        "e"
      ],
      [
        "o",
        "de"
      ],
      [
        "答",
        "案"
      ],
      [
        ")",
        ","
      ],
      [
        "编",
        "写"
      ],
      [
        "fi",
        "le"
      ],
      [
        "pr",
        "int"
      ],
      [
        "格",
        "式"
      ],
      [
        "现",
        "在"
      ],
      [
        "我们",
        "的"
      ],
      [
        "m",
        "ent"
      ],
      [
        "的",
        "示例"
      ],
      [
        "f",
        "un"
      ],
      [
        "描",
        "述"
      ],
      [
        "版",
        "本"
      ],
      [
        "d",
        "er"
      ],
      [
        "希",
        "望"
      ],
      [
        "知",
        "识"
      ],
      [
        "日",
        "期"
      ],
      [
        "过",
        "程"
      ],
      [
        "str",
        "ing"
      ],
      [
        "\"",
        ")"
      ],
      [
        "配",
        "置"
      ],
      [
        "an",
        "g"
      ],
      [
        "文",
        "档"
      ],
      [
        "in",
        "put"
      ],
      [
        "f",
        "rom"
      ],
      [
        "i",
        "al"
      ],
      [
        "之",
        "前"
      ],
      [
        "回",
        "答"
      ],
      [
        "环",
        "境"
      ],
      [
        "人",
        "员"
      ],
      [
        "模",
        "式"
      ],
      [
        "这",
        "种"
      ],
      [
        "S",
        "cript"
      ],
      [
        "自己",
        "的"
      ],
      [
        "潜",
        "在"
      ],
      [
        "ab",
        "le"
      ],
      [
        "H",
        "T"
      ],
      [
        "控",
        "制"
      ],
      [
        "提",
        "高"
      ],
      [
        "提",
        "示"
      ],
      [
        "此",
        "外"
      ],
      [
        "通",
        "常"
      ],
      [
        "un",
        "t"
      ],
      [
        "que",
        "st"
      ],
      [
        "s",
        "s"
      ],
      [
        "组",
        "织"
      ],
      [
        "a",
        "re"
      ],
      [
        "）",
        "，"
      ],
      [
        "as",
        "h"
      ],
      [
        "主",
        "题"
      ],
      [
        "电",
        "子"
      ],
      [
        "获",
        "得"
      ],
      [
        "”",
        "。"
      ],
      [
        "这",
        "将"
      ],
      [
        "这",
        "是一个"
      ],
      [
        "O",
        "N"
      ],
      [
        "位",
        "置"
      ],
      [
        "情况",
        "下"
      ],
      [
        "上",
        "的"
      ],
      [
        "世",
        "界"
      ],
      [
        "例",
        "子"
      ],
      [
        "us",
        "er"
      ],
      [
        "f",
        "f"
      ],
      [
        "但",
        "是"
      ],
      [
        "这",
        "里"
      ],
      [
        "需",
        "求"
      ],
      [
        "=",
        ">"
      ],
      [
        "O",
        "pen"
      ],
      [
        "简",
        "单"
      ],
      [
        "i",
        "p"
      ],
      [
        "p",
        "ub"
      ],
      [
        "设",
        "备"
      ],
      [
        "计算",
        "机"
      ],
      [
        "for",
        "m"
      ],
      [
        "J",
        "S"
      ],
      [
        "您",
        "需要"
      ],
      [
        "许",
        "多"
      ],
      [
        "的",
        "人"
      ],
      [
        "0",
        "1"
      ],
      [
        "专",
        "业"
      ],
      [
        "数据",
        "库"
      ],
      [
        "结",
        "构"
      ],
      [
        "这",
        "样"
      ],
      [
        "ar",
        "t"
      ],
      [
        "Chat",
        "GPT"
      ],
      [
        "fun",
        "ction"
      ],
      [
        "c",
        "re"
      ],
      [
        "k",
        "er"
      ],
      [
        "n",
        "um"
      ],
      [
        "成",
        "功"
      ],
      [
        "联",
        "系"
      ],
      [
        "要",
        "求"
      ],
      [
        "pub",
        "lic"
      ],
      [
        "所",
        "需"
      ],
      [
        "更",
        "改"
      ],
      [
        "I",
        "N"
      ],
      [
        "P",
        "ro"
      ],
      [
        "i",
        "st"
      ],
      [
        "识",
        "别"
      ],
      [
        "c",
        "ur"
      ],
      [
        "尝",
        "试"
      ],
      [
        "构",
        "建"
      ],
      [
        "学",
        "生"
      ],
      [
        "选",
        "项"
      ],
      [
        "==",
        "=="
      ],
      [
        "'",
        ";"
      ],
      [
        "响",
        "应"
      ],
      [
        "是",
        "一种"
      ],
      [
        "涉",
        "及"
      ],
      [
        "销",
        "售"
      ],
      [
        "1",
        "6"
      ],
      [
        "b",
        "ject"
      ],
      [
        "g",
        "le"
      ],
      [
        "p",
        "y"
      ],
      [
        "方",
        "案"
      ],
      [
        "有",
        "一个"
      ],
      [
        "训",
        "练"
      ],
      [
        "()",
        "`"
      ],
      [
        "W",
        "eb"
      ],
      [
        "员",
        "工"
      ],
      [
        "状",
        "态"
      ],
      [
        "--",
        "-"
      ],
      [
        "1",
        "5"
      ],
      [
        ":",
        ":"
      ],
      [
        "e",
        "p"
      ],
      [
        "保",
        "持"
      ],
      [
        "修",
        "改"
      ],
      [
        "减",
        "少"
      ],
      [
        "页",
        "面"
      ],
      [
        "js",
        "on"
      ],
      [
        "v",
        "ar"
      ],
      [
        "单",
        "词"
      ],
      [
        "S",
        "E"
      ],
      [
        "W",
        "or"
      ],
      [
        "复",
        "杂"
      ],
      [
        "视",
        "频"
      ],
      [
        "语言",
        "模型"
      ],
      [
        "A",
        "N"
      ],
      [
        "邮",
        "件"
      ],
      [
        "u",
        "se"
      ],
      [
        "删",
        "除"
      ],
      [
        "存",
        "在"
      ],
      [
        "当",
        "前"
      ],
      [
        "方",
        "面"
      ],
      [
        "ion",
        "s"
      ],
      [
        "算",
        "法"
      ],
      [
        "调",
        "用"
      ],
      [
        "el",
        "l"
      ],
      [
        "ad",
        "d"
      ],
      [
        "a",
        "in"
      ],
      [
        "多",
        "个"
      ],
      [
        "成",
        "为"
      ],
      [
        "是",
        "什么"
      ],
      [
        "t",
        "ype"
      ],
      [
        "A",
        "p"
      ],
      [
        "t",
        "on"
      ],
      [
        "了",
        "一个"
      ],
      [
        "有",
        "关"
      ],
      [
        "ac",
        "e"
      ],
      [
        "ig",
        "ht"
      ],
      [
        "1",
        "1"
      ],
      [
        "N",
        "ame"
      ],
      [
        "R",
        "E"
      ],
      [
        "o",
        "re"
      ],
      [
        "权",
        "限"
      ],
      [
        "玩",
        "家"
      ],
      [
        "自",
        "动"
      ],
      [
        "lo",
        "g"
      ],
      [
        "ap",
        "i"
      ],
      [
        "A",
        "n"
      ],
      [
        "M",
        "L"
      ],
      [
        "的",
        "数据"
      ],
      [
        "res",
        "ult"
      ],
      [
        "a",
        "st"
      ],
      [
        "文",
        "章"
      ],
      [
        "目",
        "录"
      ],
      [
        "参",
        "与"
      ],
      [
        "来",
        "说"
      ],
      [
        "or",
        "y"
      ],
      [
        "co",
        "l"
      ],
      [
        "ap",
        "p"
      ],
      [
        "iz",
        "e"
      ],
      [
        "1",
        "00"
      ],
      [
        "F",
        "i"
      ],
      [
        "a",
        "il"
      ],
      [
        "解决",
        "方案"
      ],
      [
        "之间",
        "的"
      ],
      [
        ")",
        ")"
      ],
      [
        "分",
        "配"
      ],
      [
        "标",
        "题"
      ],
      [
        "知",
        "道"
      ],
      [
        "编",
        "程"
      ],
      [
        "oo",
        "gle"
      ],
      [
        "ess",
        "age"
      ],
      [
        "3",
        "0"
      ],
      [
        "A",
        "L"
      ],
      [
        "m",
        "l"
      ],
      [
        "。",
        "”"
      ],
      [
        "社",
        "交"
      ],
      [
        "it",
        "h"
      ],
      [
        "名",
        "为"
      ],
      [
        "在",
        "线"
      ],
      [
        "告诉",
        "我"
      ],
      [
        "S",
        "Q"
      ],
      [
        "准",
        "确"
      ],
      [
        "Java",
        "Script"
      ],
      [
        "C",
        "om"
      ],
      [
        "S",
        "y"
      ],
      [
        "并",
        "且"
      ],
      [
        "最",
        "后"
      ],
      [
        "移",
        "动"
      ],
      [
        "de",
        "f"
      ],
      [
        "或",
        "者"
      ],
      [
        "）",
        "。"
      ],
      [
        "性",
        "的"
      ],
      [
        "an",
        "s"
      ],
      [
        "th",
        "e"
      ],
      [
        "1",
        "3"
      ],
      [
        "技",
        "能"
      ],
      [
        "S",
        "tr"
      ],
      [
        "k",
        "en"
      ],
      [
        "关",
        "系"
      ],
      [
        "大",
        "小"
      ],
      [
        "挑",
        "战"
      ],
      [
        "经",
        "验"
      ],
      [
        "表",
        "达"
      ],
      [
        "适",
        "合"
      ],
      [
        "可以",
        "在"
      ],
      [
        "ic",
        "e"
      ],
      [
        "O",
        "bject"
      ],
      [
        "d",
        "ate"
      ],
      [
        "m",
        "o"
      ],
      [
        "Open",
        "AI"
      ],
      [
        "SQ",
        "L"
      ],
      [
        "E",
        "T"
      ],
      [
        "[",
        "]"
      ],
      [
        "h",
        "and"
      ],
      [
        "p",
        "ath"
      ],
      [
        "pon",
        "se"
      ],
      [
        "_",
        "t"
      ],
      [
        "\"",
        ");"
      ],
      [
        "T",
        "e"
      ],
      [
        "i",
        "ve"
      ],
      [
        "为",
        "什么"
      ],
      [
        "er",
        "s"
      ],
      [
        "3",
        "2"
      ],
      [
        "E",
        "n"
      ],
      [
        "g",
        "r"
      ],
      [
        "想",
        "要"
      ],
      [
        "le",
        "s"
      ],
      [
        "it",
        "e"
      ],
      [
        "U",
        "R"
      ],
      [
        "l",
        "en"
      ],
      [
        "}",
        ","
      ],
      [
        "性",
        "能"
      ],
      [
        "是",
        "一"
      ],
      [
        "ar",
        "g"
      ],
      [
        "am",
        "ple"
      ],
      [
        "out",
        "put"
      ],
      [
        "2",
        "5"
      ],
      [
        "D",
        "ata"
      ],
      [
        "_",
        "s"
      ],
      [
        "n",
        "et"
      ],
      [
        "大",
        "的"
      ],
      [
        "标",
        "准"
      ],
      [
        "然",
        "而"
      ],
      [
        "行",
        "为"
      ],
      [
        "：",
        "“"
      ],
      [
        "T",
        "P"
      ],
      [
        "详",
        "细"
      ],
      [
        "in",
        "d"
      ],
      [
        "Re",
        "act"
      ],
      [
        "价",
        "值"
      ],
      [
        "必",
        "须"
      ],
      [
        "，",
        "`"
      ],
      [
        "in",
        "k"
      ],
      [
        "A",
        "T"
      ],
      [
        "T",
        "r"
      ],
      [
        "i",
        "o"
      ],
      [
        "t",
        "ent"
      ],
      [
        "合",
        "作"
      ],
      [
        "在",
        "这个"
      ],
      [
        "建",
        "立"
      ],
      [
        "re",
        "n"
      ],
      [
        "_",
        "id"
      ],
      [
        "为",
        "了"
      ],
      [
        "分",
        "享"
      ],
      [
        "智",
        "能"
      ],
      [
        "查",
        "询"
      ],
      [
        "增",
        "加"
      ],
      [
        "媒",
        "体"
      ],
      [
        "导",
        "致"
      ],
      [
        "表",
        "格"
      ],
      [
        "it",
        "em"
      ],
      [
        "链",
        "接"
      ],
      [
        "th",
        "is"
      ],
      [
        "ig",
        "n"
      ],
      [
        "ke",
        "y"
      ],
      [
        "而",
        "不是"
      ],
      [
        "ct",
        "or"
      ],
      [
        "im",
        "age"
      ],
      [
        "wor",
        "d"
      ],
      [
        "t",
        "d"
      ],
      [
        "v",
        "o"
      ],
      [
        "我",
        "可以"
      ],
      [
        "的",
        "方式"
      ],
      [
        "量",
        "子"
      ],
      [
        "验",
        "证"
      ],
      [
        "设置",
        "为"
      ],
      [
        "1",
        "4"
      ],
      [
        "P",
        "o"
      ],
      [
        "T",
        "ext"
      ],
      [
        "i",
        "e"
      ],
      [
        "利",
        "用"
      ],
      [
        "并",
        "在"
      ],
      [
        "快",
        "速"
      ],
      [
        "扩",
        "展"
      ],
      [
        "按",
        "钮"
      ],
      [
        "提",
        "取"
      ],
      [
        "认",
        "为"
      ],
      [
        "课",
        "程"
      ],
      [
        "res",
        "ponse"
      ],
      [
        "限",
        "制"
      ],
      [
        "ht",
        "ml"
      ],
      [
        "ww",
        "w"
      ],
      [
        "C",
        "T"
      ],
      [
        "T",
        "o"
      ],
      [
        "_",
        "_"
      ],
      [
        "b",
        "o"
      ],
      [
        "f",
        "ig"
      ],
      [
        "创",
        "造"
      ],
      [
        "机",
        "会"
      ],
      [
        "集",
        "成"
      ],
      [
        "en",
        "er"
      ],
      [
        "te",
        "st"
      ],
      [
        "机器",
        "学习"
      ],
      [
        "b",
        "ack"
      ],
      [
        "同",
        "时"
      ],
      [
        "的",
        "任何"
      ],
      [
        "on",
        "e"
      ],
      [
        "ver",
        "s"
      ],
      [
        "(",
        "("
      ],
      [
        "u",
        "d"
      ],
      [
        "事",
        "情"
      ],
      [
        "D",
        "o"
      ],
      [
        "地",
        "址"
      ],
      [
        "浏",
        "览"
      ],
      [
        "角",
        "色"
      ],
      [
        ")",
        ":"
      ],
      [
        "*",
        "*"
      ],
      [
        "和",
        "其他"
      ],
      [
        "数",
        "组"
      ],
      [
        "给",
        "我"
      ],
      [
        "，",
        "“"
      ],
      [
        "co",
        "de"
      ],
      [
        "所需",
        "的"
      ],
      [
        "o",
        "f"
      ],
      [
        "助",
        "于"
      ],
      [
        "平",
        "均"
      ],
      [
        "有",
        "助于"
      ],
      [
        "”，",
        "“"
      ],
      [
        "提",
        "交"
      ],
      [
        "首",
        "先"
      ],
      [
        "提供",
        "了"
      ],
      [
        "a",
        "x"
      ],
      [
        "的",
        "最"
      ],
      [
        "的",
        "方法"
      ],
      [
        "请",
        "注意"
      ],
      [
        "质",
        "量"
      ],
      [
        "val",
        "ue"
      ],
      [
        "<",
        "<"
      ],
      [
        "G",
        "oogle"
      ],
      [
        "i",
        "x"
      ],
      [
        "w",
        "s"
      ],
      [
        "企",
        "业"
      ],
      [
        "匹",
        "配"
      ],
      [
        "性",
        "和"
      ],
      [
        "我",
        "想"
      ],
      [
        "el",
        "lo"
      ],
      [
        "电子",
        "邮件"
      ],
      [
        "f",
        "t"
      ],
      [
        "n",
        "p"
      ],
      [
        "字",
        "母"
      ],
      [
        "调",
        "整"
      ],
      [
        "ut",
        "ton"
      ],
      [
        "添加",
        "到"
      ],
      [
        "od",
        "y"
      ],
      [
        "U",
        "n"
      ],
      [
        "v",
        "ent"
      ],
      [
        "一",
        "步"
      ],
      [
        "味",
        "着"
      ],
      [
        "意",
        "味着"
      ],
      [
        "st",
        "at"
      ],
      [
        "or",
        "m"
      ],
      [
        "可能",
        "需要"
      ],
      [
        "打",
        "印"
      ],
      [
        "相",
        "同"
      ],
      [
        "策",
        "略"
      ],
      [
        "o",
        "g"
      ],
      [
        "在",
        "此"
      ],
      [
        "基",
        "本"
      ],
      [
        "打",
        "开"
      ],
      [
        "拥",
        "有"
      ],
      [
        "未",
        "来"
      ],
      [
        "er",
        "r"
      ],
      [
        "客户",
        "端"
      ],
      [
        "E",
        "x"
      ],
      [
        "兴",
        "趣"
      ],
      [
        "另",
        "一个"
      ],
      [
        "转",
        "换为"
      ],
      [
        "如何",
        "使用"
      ],
      [
        "oo",
        "k"
      ],
      [
        "Str",
        "ing"
      ],
      [
        "R",
        "O"
      ],
      [
        "o",
        "pen"
      ],
      [
        "体",
        "验"
      ],
      [
        "将",
        "其"
      ],
      [
        "是",
        "的"
      ],
      [
        "某",
        "些"
      ],
      [
        "的",
        "问题"
      ],
      [
        "讨",
        "论"
      ],
      [
        "w",
        "id"
      ],
      [
        "中",
        "心"
      ],
      [
        "优",
        "化"
      ],
      [
        "的",
        "代码"
      ],
      [
        "看",
        "到"
      ],
      [
        "继",
        "续"
      ],
      [
        "M",
        "E"
      ],
      [
        "S",
        "h"
      ],
      [
        "投",
        "资"
      ],
      [
        "的",
        "值"
      ],
      [
        "行",
        "业"
      ],
      [
        "st",
        "em"
      ],
      [
        "简单",
        "的"
      ],
      [
        "L",
        "E"
      ],
      [
        "c",
        "ess"
      ],
      [
        "f",
        "o"
      ],
      [
        "发",
        "展"
      ],
      [
        "可",
        "用于"
      ],
      [
        "实",
        "际"
      ],
      [
        "替",
        "换为"
      ],
      [
        "有",
        "趣"
      ],
      [
        "so",
        "le"
      ],
      [
        "'",
        ");"
      ],
      [
        "i",
        "r"
      ],
      [
        "不",
        "要"
      ],
      [
        "传",
        "递"
      ],
      [
        "决",
        "策"
      ],
      [
        "展",
        "示"
      ],
      [
        "20",
        "2"
      ],
      [
        "一",
        "下"
      ],
      [
        "人",
        "类"
      ],
      [
        "发",
        "现"
      ],
      [
        "想",
        "法"
      ],
      [
        "的",
        "一"
      ],
      [
        "lo",
        "c"
      ],
      [
        "机器",
        "人"
      ],
      [
        "i",
        "re"
      ],
      [
        "p",
        "ython"
      ],
      [
        "事",
        "件"
      ],
      [
        "编",
        "辑"
      ],
      [
        "as",
        "k"
      ],
      [
        "+",
        "+"
      ],
      [
        "健",
        "康"
      ],
      [
        "单",
        "击"
      ],
      [
        "可",
        "用"
      ],
      [
        "引",
        "用"
      ],
      [
        "必",
        "要"
      ],
      [
        "数",
        "量"
      ],
      [
        "00",
        "0"
      ],
      [
        "he",
        "ad"
      ],
      [
        "aa",
        "aa"
      ],
      [
        "ang",
        "e"
      ],
      [
        "l",
        "d"
      ],
      [
        "主",
        "要"
      ],
      [
        "概",
        "念"
      ],
      [
        "虚",
        "拟"
      ],
      [
        "起",
        "来"
      ],
      [
        "_m",
        "m"
      ],
      [
        "\"",
        ";"
      ],
      [
        "'",
        "]"
      ],
      [
        "保",
        "存"
      ],
      [
        "说",
        "明"
      ],
      [
        "cre",
        "ate"
      ],
      [
        "g",
        "ro"
      ],
      [
        "u",
        "st"
      ],
      [
        "y",
        "n"
      ],
      [
        "不",
        "会"
      ],
      [
        "假",
        "设"
      ],
      [
        "JS",
        "ON"
      ],
      [
        "#",
        "#"
      ],
      [
        "R",
        "es"
      ],
      [
        "T",
        "ype"
      ],
      [
        "T",
        "ime"
      ],
      [
        "e",
        "c"
      ],
      [
        "s",
        "on"
      ],
      [
        "接",
        "受"
      ],
      [
        "收",
        "集"
      ],
      [
        "at",
        "ch"
      ],
      [
        "st",
        "all"
      ],
      [
        "pon",
        "ent"
      ],
      [
        "A",
        "R"
      ],
      [
        "I",
        "d"
      ],
      [
        "人",
        "的"
      ],
      [
        "循",
        "环"
      ],
      [
        "标",
        "记"
      ],
      [
        "模",
        "拟"
      ],
      [
        "re",
        "ad"
      ],
      [
        "ab",
        "el"
      ],
      [
        "vo",
        "id"
      ],
      [
        "b",
        "ase"
      ],
      [
        "以",
        "确保"
      ],
      [
        "做",
        "出"
      ],
      [
        "名",
        "字"
      ],
      [
        "复",
        "制"
      ],
      [
        "标",
        "签"
      ],
      [
        "适",
        "当"
      ],
      [
        "重",
        "新"
      ],
      [
        "使用",
        "的"
      ],
      [
        "an",
        "t"
      ],
      [
        "开发",
        "人员"
      ],
      [
        "12",
        "8"
      ],
      [
        "wor",
        "k"
      ],
      [
        "(",
        "$"
      ],
      [
        "上",
        "下"
      ],
      [
        "因",
        "素"
      ],
      [
        "查",
        "看"
      ],
      [
        "生",
        "活"
      ],
      [
        "re",
        "quest"
      ],
      [
        "以下",
        "命令"
      ],
      [
        "如何",
        "在"
      ],
      [
        "1",
        "9"
      ],
      [
        "[",
        "'"
      ],
      [
        "]",
        ";"
      ],
      [
        "b",
        "ash"
      ],
      [
        "b",
        "ody"
      ],
      [
        "d",
        "s"
      ],
      [
        "s",
        "p"
      ],
      [
        "s",
        "it"
      ],
      [
        "几",
        "个"
      ],
      [
        "堆",
        "栈"
      ],
      [
        "按",
        "照"
      ],
      [
        "el",
        "se"
      ],
      [
        "oo",
        "l"
      ],
      [
        "..",
        "."
      ],
      [
        "HT",
        "ML"
      ],
      [
        "S",
        "er"
      ],
      [
        "_",
        "ep"
      ],
      [
        "并",
        "使用"
      ],
      [
        "广",
        "泛"
      ],
      [
        "检",
        "测"
      ],
      [
        "目",
        "的"
      ],
      [
        "评",
        "估"
      ],
      [
        "le",
        "ment"
      ],
      [
        "提供",
        "的"
      ],
      [
        "ode",
        "l"
      ],
      [
        "6",
        "4"
      ],
      [
        "C",
        "o"
      ],
      [
        "b",
        "y"
      ],
      [
        "h",
        "o"
      ],
      [
        "}",
        ");"
      ],
      [
        "对",
        "话"
      ],
      [
        "条",
        "件"
      ],
      [
        "空",
        "间"
      ],
      [
        "调",
        "查"
      ],
      [
        "en",
        "s"
      ],
      [
        "con",
        "fig"
      ],
      [
        "res",
        "s"
      ],
      [
        "正确",
        "的"
      ],
      [
        "/",
        ">"
      ],
      [
        "I",
        "T"
      ],
      [
        "V",
        "AL"
      ],
      [
        "b",
        "u"
      ],
      [
        "决",
        "于"
      ],
      [
        "取",
        "决于"
      ],
      [
        "旨",
        "在"
      ],
      [
        "水",
        "平"
      ],
      [
        "的",
        "新"
      ],
      [
        "范",
        "围"
      ],
      [
        "ma",
        "x"
      ],
      [
        "=",
        "{"
      ],
      [
        "g",
        "it"
      ],
      [
        "u",
        "de"
      ],
      [
        "你",
        "可以"
      ],
      [
        "字",
        "段"
      ],
      [
        "改",
        "进"
      ],
      [
        "的",
        "内容"
      ],
      [
        "社",
        "区"
      ],
      [
        "第",
        "三"
      ],
      [
        "de",
        "x"
      ],
      [
        "us",
        "h"
      ],
      [
        "to",
        "ken"
      ],
      [
        "--------",
        "--------"
      ],
      [
        "Sy",
        "stem"
      ],
      [
        "上下",
        "文"
      ],
      [
        "G",
        "et"
      ],
      [
        "M",
        "o"
      ],
      [
        "i",
        "es"
      ],
      [
        "仍",
        "然"
      ],
      [
        "变",
        "化"
      ],
      [
        "第",
        "二"
      ],
      [
        "HT",
        "TP"
      ],
      [
        "wid",
        "th"
      ],
      [
        "_ep",
        "i"
      ],
      [
        "专",
        "注"
      ],
      [
        "出",
        "现"
      ],
      [
        "制",
        "作"
      ],
      [
        "您",
        "还"
      ],
      [
        "感",
        "到"
      ],
      [
        "第",
        "一个"
      ],
      [
        "语",
        "句"
      ],
      [
        "读",
        "取"
      ],
      [
        "数据",
        "的"
      ],
      [
        "连接",
        "到"
      ],
      [
        "Ap",
        "p"
      ],
      [
        "5",
        "0"
      ],
      [
        "`",
        "，"
      ],
      [
        "v",
        "2"
      ],
      [
        "}",
        ";"
      ],
      [
        "介",
        "绍"
      ],
      [
        "你",
        "好"
      ],
      [
        "后",
        "的"
      ],
      [
        "哪",
        "些"
      ],
      [
        "市",
        "场"
      ],
      [
        "有",
        "任何"
      ],
      [
        "点",
        "的"
      ],
      [
        "轻",
        "松"
      ],
      [
        "这",
        "可能"
      ],
      [
        "st",
        "d"
      ],
      [
        "cur",
        "ren"
      ],
      [
        "社交",
        "媒体"
      ],
      [
        "M",
        "y"
      ],
      [
        "U",
        "ser"
      ],
      [
        "f",
        "a"
      ],
      [
        "y",
        "our"
      ],
      [
        "到",
        "的"
      ],
      [
        "特",
        "征"
      ],
      [
        "背",
        "景"
      ],
      [
        "虽",
        "然"
      ],
      [
        "记",
        "录"
      ],
      [
        "跟",
        "踪"
      ],
      [
        "路",
        "径"
      ],
      [
        "如果",
        "你"
      ],
      [
        "do",
        "c"
      ],
      [
        "C",
        "ol"
      ],
      [
        "I",
        "P"
      ],
      [
        "a",
        "ch"
      ],
      [
        "l",
        "ay"
      ],
      [
        "产",
        "生"
      ],
      [
        "保",
        "护"
      ],
      [
        "基",
        "础"
      ],
      [
        "持",
        "续"
      ],
      [
        "系",
        "列"
      ],
      [
        "自",
        "定义"
      ],
      [
        "艺",
        "术"
      ],
      [
        "）",
        "："
      ],
      [
        "ut",
        "h"
      ],
      [
        "lo",
        "w"
      ],
      [
        "您可以",
        "在"
      ],
      [
        "il",
        "d"
      ],
      [
        "ck",
        "et"
      ],
      [
        "F",
        "orm"
      ],
      [
        "O",
        "R"
      ],
      [
        "U",
        "T"
      ],
      [
        "_",
        "name"
      ],
      [
        "y",
        "le"
      ],
      [
        "z",
        "ure"
      ],
      [
        "检",
        "索"
      ],
      [
        "迁",
        "移"
      ],
      [
        "预",
        "测"
      ],
      [
        "or",
        "g"
      ],
      [
        "1",
        "8"
      ],
      [
        "C",
        "l"
      ],
      [
        "]",
        ","
      ],
      [
        "g",
        "in"
      ],
      [
        "p",
        "h"
      ],
      [
        "令",
        "牌"
      ],
      [
        "喜",
        "欢"
      ],
      [
        "感",
        "谢"
      ],
      [
        "报",
        "告"
      ],
      [
        "电",
        "影"
      ],
      [
        "长",
        "度"
      ],
      [
        "集",
        "合"
      ],
      [
        "lo",
        "b"
      ],
      [
        "H",
        "ello"
      ],
      [
        "a",
        "w"
      ],
      [
        "i",
        "se"
      ],
      [
        "i",
        "ent"
      ],
      [
        "p",
        "s"
      ],
      [
        "传",
        "统"
      ],
      [
        "单",
        "元"
      ],
      [
        "情",
        "感"
      ],
      [
        "改",
        "变"
      ],
      [
        "模",
        "块"
      ],
      [
        "过",
        "滤"
      ],
      [
        "co",
        "unt"
      ],
      [
        "注意",
        "的是"
      ],
      [
        "A",
        "b"
      ],
      [
        "a",
        "f"
      ],
      [
        "d",
        "f"
      ],
      [
        "q",
        "l"
      ],
      [
        "s",
        "c"
      ],
      [
        "一",
        "次"
      ],
      [
        "内",
        "存"
      ],
      [
        "最",
        "终"
      ],
      [
        "来",
        "自"
      ],
      [
        "组",
        "合"
      ],
      [
        "re",
        "f"
      ],
      [
        "s",
        "v"
      ],
      [
        "s",
        "ub"
      ],
      [
        "准",
        "备"
      ],
      [
        "加",
        "载"
      ],
      [
        "原",
        "因"
      ],
      [
        "我",
        "会"
      ],
      [
        "语",
        "法"
      ],
      [
        "遵",
        "循"
      ],
      [
        "as",
        "cript"
      ],
      [
        "av",
        "ascript"
      ],
      [
        "T",
        "h"
      ],
      [
        "_",
        "p"
      ],
      [
        "`",
        "。"
      ],
      [
        "a",
        "i"
      ],
      [
        "m",
        "in"
      ],
      [
        "r",
        "y"
      ],
      [
        "w",
        "ith"
      ],
      [
        "业",
        "务"
      ],
      [
        "小",
        "时"
      ],
      [
        "成",
        "本"
      ],
      [
        "颜",
        "色"
      ],
      [
        "st",
        "art"
      ],
      [
        "lo",
        "ud"
      ],
      [
        "5",
        "5"
      ],
      [
        "E",
        "R"
      ],
      [
        "H",
        "E"
      ],
      [
        "c",
        "d"
      ],
      [
        "x",
        "x"
      ],
      [
        "一",
        "起"
      ],
      [
        "交",
        "易"
      ],
      [
        "以",
        "便"
      ],
      [
        "传",
        "感"
      ],
      [
        "区",
        "域"
      ],
      [
        "反",
        "馈"
      ],
      [
[...]
